{
  "<EOS>": 0,
  "<GO>": 1,
  "<UNK>": 2,
  ",": 3,
  ".": 4,
  "the": 5,
  "to": 6,
  "a": 7,
  "of": 8,
  "and": 9,
  "that": 10,
  "in": 11,
  "I": 12,
  "is": 13,
  "it": 14,
  "you": 15,
  "&apos;s": 16,
  "e@@": 17,
  "we": 18,
  "And": 19,
  "c@@": 20,
  "s@@": 21,
  "this": 22,
  "t@@": 23,
  "in@@": 24,
  "on": 25,
  "re@@": 26,
  "&quot;": 27,
  "ed": 28,
  "i@@": 29,
  "m@@": 30,
  "--": 31,
  "es": 32,
  "b@@": 33,
  "u@@": 34,
  "d@@": 35,
  "al": 36,
  "f@@": 37,
  "are": 38,
  "en@@": 39,
  "s": 40,
  "ing": 41,
  "was": 42,
  "g@@": 43,
  "a@@": 44,
  "o@@": 45,
  "y": 46,
  "have": 47,
  "for": 48,
  "p@@": 49,
  "li@@": 50,
  "an": 51,
  "they": 52,
  "l@@": 53,
  "h@@": 54,
  "?": 55,
  "at": 56,
  "with": 57,
  "can": 58,
  "an@@": 59,
  "one": 60,
  "&apos;t": 61,
  "what": 62,
  "w@@": 63,
  "about": 64,
  "ly": 65,
  "al@@": 66,
  "So": 67,
  "as": 68,
  "be": 69,
  "all": 70,
  "-@@": 71,
  "v@@": 72,
  "st@@": 73,
  "or@@": 74,
  "or": 75,
  "ar@@": 76,
  ":": 77,
  "di@@": 78,
  "r@@": 79,
  "there": 80,
  "on@@": 81,
  "do": 82,
  "y@@": 83,
  "not": 84,
  "e": 85,
  "t": 86,
  "at@@": 87,
  "S@@": 88,
  "de@@": 89,
  "tion": 90,
  "k@@": 91,
  "ti@@": 92,
  "ac@@": 93,
  "n@@": 94,
  "er@@": 95,
  "ec@@": 96,
  "It": 97,
  "&apos;re": 98,
  "ts": 99,
  "like": 100,
  "people": 101,
  "from": 102,
  "ds": 103,
  "so": 104,
  "se@@": 105,
  "er": 106,
  "as@@": 107,
  "me": 108,
  "very": 109,
  "my": 110,
  "n": 111,
  "it@@": 112,
  "un@@": 113,
  "ro@@": 114,
  "le@@": 115,
  "out": 116,
  "A@@": 117,
  "know": 118,
  "The": 119,
  "just": 120,
  "el@@": 121,
  "but": 122,
  "ity": 123,
  "ol@@": 124,
  "st": 125,
  "su@@": 126,
  "We": 127,
  "our": 128,
  "con@@": 129,
  "up": 130,
  "But": 131,
  "d": 132,
  "M@@": 133,
  "ex@@": 134,
  "if": 135,
  "going": 136,
  "la@@": 137,
  "these": 138,
  "vi@@": 139,
  "si@@": 140,
  "th@@": 141,
  "m": 142,
  "lo@@": 143,
  "ma@@": 144,
  "se": 145,
  "ri@@": 146,
  "them": 147,
  "by": 148,
  "us": 149,
  "il@@": 150,
  "here": 151,
  "me@@": 152,
  "sh@@": 153,
  "ate": 154,
  "ers": 155,
  "le": 156,
  "om@@": 157,
  "ur@@": 158,
  "which": 159,
  "k": 160,
  "he": 161,
  "ap@@": 162,
  "because": 163,
  "think": 164,
  "B@@": 165,
  "C@@": 166,
  "get": 167,
  "see": 168,
  "ic@@": 169,
  "ar": 170,
  "ation": 171,
  "had": 172,
  "ch@@": 173,
  "pro@@": 174,
  "how": 175,
  "more": 176,
  "mo@@": 177,
  "when": 178,
  "really": 179,
  "ou@@": 180,
  "D@@": 181,
  "P@@": 182,
  "This": 183,
  "h": 184,
  "&apos;ve": 185,
  "l": 186,
  "os@@": 187,
  "would": 188,
  "ra@@": 189,
  "who": 190,
  "You": 191,
  "qu@@": 192,
  "sp@@": 193,
  "your": 194,
  "world": 195,
  "ad@@": 196,
  "&apos;m": 197,
  "ir@@": 198,
  "way": 199,
  "p": 200,
  "time": 201,
  "were": 202,
  "then": 203,
  "ks": 204,
  "tr@@": 205,
  "where": 206,
  "don": 207,
  "has": 208,
  "ne@@": 209,
  "things": 210,
  "their": 211,
  "ent": 212,
  "th": 213,
  "op@@": 214,
  "ve": 215,
  "tic@@": 216,
  "ta@@": 217,
  "thing": 218,
  "R@@": 219,
  "some": 220,
  "go": 221,
  "te@@": 222,
  "T@@": 223,
  "actually": 224,
  "en": 225,
  "E@@": 226,
  "ha@@": 227,
  "into": 228,
  "o": 229,
  "years": 230,
  "mi@@": 231,
  "will": 232,
  "able": 233,
  "par@@": 234,
  "G@@": 235,
  "now": 236,
  "H@@": 237,
  "z@@": 238,
  "ter@@": 239,
  "ul@@": 240,
  "W@@": 241,
  "ce": 242,
  "am@@": 243,
  "ence": 244,
  "gi@@": 245,
  "ci@@": 246,
  "want": 247,
  "N@@": 248,
  "wor@@": 249,
  "fi@@": 250,
  "F@@": 251,
  "other": 252,
  "ally": 253,
  "no@@": 254,
  "ab@@": 255,
  "ver@@": 256,
  "per@@": 257,
  "gu@@": 258,
  "make": 259,
  "ad": 260,
  "said": 261,
  "They": 262,
  "age": 263,
  "is@@": 264,
  "O@@": 265,
  "ag@@": 266,
  "ment": 267,
  "ting": 268,
  "been": 269,
  "ph@@": 270,
  "could": 271,
  "right": 272,
  "ot@@": 273,
  "ure": 274,
  "Now": 275,
  "♫": 276,
  "hi@@": 277,
  "1@@": 278,
  "to@@": 279,
  "got": 280,
  "j@@": 281,
  "ther": 282,
  "tions": 283,
  "et": 284,
  "po@@": 285,
  "w": 286,
  "c": 287,
  "ms": 288,
  "ter": 289,
  "ted": 290,
  "ge": 291,
  "sa@@": 292,
  "something": 293,
  "fa@@": 294,
  "wh@@": 295,
  "be@@": 296,
  "pre@@": 297,
  "little": 298,
  "much": 299,
  "ving": 300,
  "ked": 301,
  "over": 302,
  "That": 303,
  "we@@": 304,
  "ous": 305,
  "most": 306,
  "us@@": 307,
  "ies": 308,
  "ght": 309,
  "say": 310,
  "two": 311,
  "ear@@": 312,
  "sc@@": 313,
  "au@@": 314,
  "than": 315,
  "for@@": 316,
  "work": 317,
  "oun@@": 318,
  "tu@@": 319,
  "no": 320,
  "x@@": 321,
  "iz@@": 322,
  "ve@@": 323,
  ";": 324,
  "ess": 325,
  "first": 326,
  "look": 327,
  "J@@": 328,
  "sion": 329,
  "our@@": 330,
  "back": 331,
  "he@@": 332,
  "de": 333,
  "L@@": 334,
  "ated": 335,
  "tion@@": 336,
  "es@@": 337,
  "those": 338,
  "kind": 339,
  "gh@@": 340,
  "co@@": 341,
  "str@@": 342,
  "new": 343,
  "ch": 344,
  "life": 345,
  "body": 346,
  "his": 347,
  "bi@@": 348,
  "mp@@": 349,
  "ge@@": 350,
  "enti@@": 351,
  "ding": 352,
  "I@@": 353,
  "What": 354,
  "also": 355,
  "g": 356,
  "ful": 357,
  "lot": 358,
  "br@@": 359,
  "end": 360,
  "only": 361,
  "ice": 362,
  "king": 363,
  "the@@": 364,
  "she": 365,
  "ded": 366,
  "der": 367,
  "ents": 368,
  "pe@@": 369,
  "come": 370,
  "There": 371,
  "any": 372,
  "fe@@": 373,
  "&apos;ll": 374,
  "i": 375,
  "down": 376,
  "x": 377,
  "ying": 378,
  "tra@@": 379,
  "In": 380,
  "bo@@": 381,
  "ine": 382,
  "her": 383,
  "many": 384,
  "did": 385,
  "take": 386,
  "do@@": 387,
  "tive": 388,
  "its": 389,
  "around": 390,
  "mar@@": 391,
  "good": 392,
  "need": 393,
  "tic": 394,
  "comp@@": 395,
  "tur@@": 396,
  "ke@@": 397,
  "min@@": 398,
  "day": 399,
  "ning": 400,
  "ves": 401,
  "put": 402,
  "ty": 403,
  "r": 404,
  "ws": 405,
  "cl@@": 406,
  "0@@": 407,
  "fin@@": 408,
  "different": 409,
  "K@@": 410,
  "ical": 411,
  "even": 412,
  "doing": 413,
  "ay": 414,
  "A": 415,
  "b": 416,
  "Well": 417,
  "through": 418,
  "and@@": 419,
  "cre@@": 420,
  "He": 421,
  "being": 422,
  "ill@@": 423,
  "pl@@": 424,
  "ni@@": 425,
  "im@@": 426,
  "ob@@": 427,
  "same": 428,
  "If": 429,
  "ong": 430,
  "als": 431,
  "pos@@": 432,
  "ary": 433,
  "some@@": 434,
  "all@@": 435,
  "use": 436,
  "side": 437,
  "ved": 438,
  "story": 439,
  "sur@@": 440,
  "ant": 441,
  "car@@": 442,
  "ite": 443,
  "every": 444,
  "ating": 445,
  "ga@@": 446,
  "ose": 447,
  "ste@@": 448,
  "ect": 449,
  "gre@@": 450,
  "ue": 451,
  "called": 452,
  "ca@@": 453,
  "2@@": 454,
  "ons": 455,
  "inter@@": 456,
  "bu@@": 457,
  "ance": 458,
  "sho@@": 459,
  "three": 460,
  "ans": 461,
  "ties": 462,
  "ess@@": 463,
  "gr@@": 464,
  "made": 465,
  "red": 466,
  "ke": 467,
  "pr@@": 468,
  "self": 469,
  "&apos;d": 470,
  "talk": 471,
  "am": 472,
  "les": 473,
  "tri@@": 474,
  "exp@@": 475,
  "re": 476,
  "ic": 477,
  "year": 478,
  "Th@@": 479,
  "lea@@": 480,
  "stu@@": 481,
  "loo@@": 482,
  "ven": 483,
  "mon@@": 484,
  "ima@@": 485,
  "old": 486,
  "id": 487,
  "well": 488,
  "ser@@": 489,
  "ors": 490,
  "why": 491,
  "sts": 492,
  "ture": 493,
  "res": 494,
  "com@@": 495,
  "pi@@": 496,
  "human": 497,
  "oc@@": 498,
  "wr@@": 499,
  "last": 500,
  "tly": 501,
  "TED": 502,
  "percent": 503,
  "ned": 504,
  "pri@@": 505,
  "idea": 506,
  "change": 507,
  "ates": 508,
  "ver": 509,
  "tre@@": 510,
  "Y@@": 511,
  "lic@@": 512,
  "great": 513,
  "pp@@": 514,
  "gen@@": 515,
  "uc@@": 516,
  "fact": 517,
  "lear@@": 518,
  "pa@@": 519,
  "went": 520,
  "ces": 521,
  "ind": 522,
  "sh": 523,
  "big": 524,
  "another": 525,
  "sol@@": 526,
  "ble": 527,
  "il": 528,
  "low": 529,
  "find": 530,
  "V@@": 531,
  "tell": 532,
  "Ch@@": 533,
  "didn": 534,
  ".@@": 535,
  "sort": 536,
  "ago": 537,
  "thought": 538,
  "coun@@": 539,
  "show": 540,
  "U@@": 541,
  "ld": 542,
  "ome": 543,
  "chan@@": 544,
  "fl@@": 545,
  "soci@@": 546,
  "bit": 547,
  "started": 548,
  "place": 549,
  "ari@@": 550,
  "wing": 551,
  "ten@@": 552,
  "off": 553,
  "ss@@": 554,
  "give": 555,
  "shi@@": 556,
  "let": 557,
  "ff@@": 558,
  "ger": 559,
  "bl@@": 560,
  "course": 561,
  ",000": 562,
  "bas@@": 563,
  "ings": 564,
  "ru@@": 565,
  "should": 566,
  "important": 567,
  "water": 568,
  "kno@@": 569,
  "bot@@": 570,
  "own": 571,
  "today": 572,
  "rec@@": 573,
  "cou@@": 574,
  "mean": 575,
  "wn": 576,
  "gro@@": 577,
  "gra@@": 578,
  "&apos;": 579,
  "does": 580,
  "used": 581,
  "ters": 582,
  "ically": 583,
  "after": 584,
  "times": 585,
  "vir@@": 586,
  "try": 587,
  "!": 588,
  "problem": 589,
  "imp@@": 590,
  "every@@": 591,
  "before": 592,
  "less": 593,
  "wi@@": 594,
  "wa@@": 595,
  "start": 596,
  "na@@": 597,
  "19@@": 598,
  "ore": 599,
  "ss": 600,
  "ub@@": 601,
  "came": 602,
  "man": 603,
  "ound": 604,
  "dre@@": 605,
  "ust": 606,
  "te": 607,
  "part": 608,
  "better": 609,
  "mat@@": 610,
  "next": 611,
  "ali@@": 612,
  "him": 613,
  "dic@@": 614,
  "never": 615,
  "technology": 616,
  "nat@@": 617,
  "mu@@": 618,
  "again": 619,
  "whole": 620,
  "sta@@": 621,
  "spec@@": 622,
  "ins": 623,
  "ever": 624,
  "comple@@": 625,
  "How": 626,
  "Amer@@": 627,
  "looking": 628,
  "cor@@": 629,
  "long": 630,
  "oo@@": 631,
  "ps": 632,
  "um": 633,
  "system": 634,
  "jo@@": 635,
  "still": 636,
  "Because": 637,
  "sy@@": 638,
  "plan@@": 639,
  "war@@": 640,
  "cer@@": 641,
  "col@@": 642,
  "gin@@": 643,
  "can@@": 644,
  "might": 645,
  "grap@@": 646,
  "3@@": 647,
  "point": 648,
  "ited": 649,
  "wer": 650,
  "ell": 651,
  "any@@": 652,
  "ep": 653,
  "together": 654,
  "produc@@": 655,
  "each": 656,
  "der@@": 657,
  "go@@": 658,
  "comm@@": 659,
  "struc@@": 660,
  "few": 661,
  "too": 662,
  "happen@@": 663,
  "done": 664,
  "When": 665,
  "sci@@": 666,
  "ys": 667,
  "question": 668,
  "sk@@": 669,
  "man@@": 670,
  "du@@": 671,
  "5@@": 672,
  "incre@@": 673,
  "lar@@": 674,
  "act": 675,
  "’": 676,
  "ea@@": 677,
  "f": 678,
  "love": 679,
  "million": 680,
  "doesn": 681,
  "ns": 682,
  "loc@@": 683,
  "experi@@": 684,
  "ost": 685,
  "found": 686,
  "ry": 687,
  "ing@@": 688,
  "between": 689,
  "stor@@": 690,
  "face": 691,
  "brain": 692,
  "eff@@": 693,
  "ges": 694,
  "fac@@": 695,
  "ack": 696,
  "design": 697,
  "em@@": 698,
  "tal@@": 699,
  "Thank": 700,
  "10": 701,
  "reas@@": 702,
  "est": 703,
  "real": 704,
  "5": 705,
  "gener@@": 706,
  "under@@": 707,
  "light": 708,
  "ach": 709,
  "fu@@": 710,
  "away": 711,
  "ten": 712,
  "children": 713,
  "8@@": 714,
  "star@@": 715,
  "wanted": 716,
  "call": 717,
  "ach@@": 718,
  "ort": 719,
  "person": 720,
  "fo@@": 721,
  "ici@@": 722,
  "over@@": 723,
  "understand": 724,
  "men@@": 725,
  "fun@@": 726,
  "cap@@": 727,
  "cur@@": 728,
  "ey": 729,
  "OK": 730,
  "ations": 731,
  "6@@": 732,
  "four": 733,
  "sic": 734,
  "gs": 735,
  "Talk": 736,
  "ard": 737,
  "spe@@": 738,
  "ood": 739,
  "lim@@": 740,
  "ze": 741,
  "live": 742,
  "out@@": 743,
  "ful@@": 744,
  "ther@@": 745,
  "are@@": 746,
  "ree": 747,
  "kids": 748,
  "organ@@": 749,
  "trying": 750,
  "working": 751,
  "cho@@": 752,
  "Africa": 753,
  "disc@@": 754,
  "always": 755,
  "00": 756,
  "ran@@": 757,
  "Here": 758,
  "St@@": 759,
  "may": 760,
  "fri@@": 761,
  "dy": 762,
  "stuff": 763,
  "ics": 764,
  "line": 765,
  "ots": 766,
  "9@@": 767,
  "thinking": 768,
  "commun@@": 769,
  "Subtitles": 770,
  "Transcript": 771,
  "money": 772,
  "univer@@": 773,
  "sense": 774,
  "mil@@": 775,
  "ill": 776,
  "cul@@": 777,
  "example": 778,
  "econom@@": 779,
  "believe": 780,
  "val@@": 781,
  "ys@@": 782,
  "using": 783,
  "everything": 784,
  "ase": 785,
  "happ@@": 786,
  "ldn": 787,
  "One": 788,
  "sub@@": 789,
  "In@@": 790,
  "quite": 791,
  "ll": 792,
  "2": 793,
  "4@@": 794,
  "took": 795,
  "resp@@": 796,
  "ness": 797,
  "lan@@": 798,
  "son": 799,
  "selves": 800,
  "says": 801,
  "anim@@": 802,
  "ging": 803,
  "el": 804,
  "ep@@": 805,
  "mor@@": 806,
  "ses": 807,
  "energy": 808,
  "making": 809,
  "ones": 810,
  "hop@@": 811,
  "comes": 812,
  "These": 813,
  "enough": 814,
  "land": 815,
  "interesting": 816,
  "dollars": 817,
  "bec@@": 818,
  "power": 819,
  "data": 820,
  "ans@@": 821,
  "country": 822,
  "heal@@": 823,
  "school": 824,
  "wer@@": 825,
  "7@@": 826,
  "five": 827,
  "building": 828,
  "tely": 829,
  "tw@@": 830,
  "0": 831,
  "develop@@": 832,
  "happened": 833,
  "getting": 834,
  "beau@@": 835,
  "sig@@": 836,
  "char@@": 837,
  "food": 838,
  "feel": 839,
  "form": 840,
  "coming": 841,
  "ree@@": 842,
  "pres@@": 843,
  "create": 844,
  "help": 845,
  "ele@@": 846,
  "pic@@": 847,
  "My": 848,
  "maybe": 849,
  "sel@@": 850,
  "high@@": 851,
  "my@@": 852,
  "second": 853,
  "space": 854,
  "ple": 855,
  "number": 856,
  "No": 857,
  "lin@@": 858,
  "sti@@": 859,
  "probably": 860,
  "buil@@": 861,
  "Earth": 862,
  "form@@": 863,
  "She": 864,
  "pt": 865,
  "dri@@": 866,
  "har@@": 867,
  "ready": 868,
  "...": 869,
  "tries": 870,
  "top": 871,
  "dge": 872,
  "20": 873,
  "ths": 874,
  "future": 875,
  "ale": 876,
  "pat@@": 877,
  "talking": 878,
  "anything": 879,
  "An@@": 880,
  "wat@@": 881,
  "elec@@": 882,
  "50": 883,
  "set": 884,
  "seen": 885,
  "gh": 886,
  "cen@@": 887,
  "small": 888,
  "desig@@": 889,
  "hard": 890,
  "ster": 891,
  "ask": 892,
  "op": 893,
  "grou@@": 894,
  "pla@@": 895,
  "log@@": 896,
  "means": 897,
  "brea@@": 898,
  "book": 899,
  "up@@": 900,
  "left": 901,
  "app@@": 902,
  "room": 903,
  "ged": 904,
  "chil@@": 905,
  "Un@@": 906,
  "wed": 907,
  "move": 908,
  "kes": 909,
  "trans@@": 910,
  "plac@@": 911,
  "stri@@": 912,
  "become": 913,
  "bac@@": 914,
  "fol@@": 915,
  "ability": 916,
  "pretty": 917,
  "ey@@": 918,
  "hun@@": 919,
  "tain": 920,
  "play": 921,
  "sive": 922,
  "build": 923,
  "best": 924,
  "information": 925,
  "ward": 926,
  "art": 927,
  "ir": 928,
  "ways": 929,
  "bor@@": 930,
  "dent": 931,
  "ideas": 932,
  "Wh@@": 933,
  "half": 934,
  "gine": 935,
  "sing@@": 936,
  "simple": 937,
  "science": 938,
  "ously": 939,
  "picture": 940,
  "cr@@": 941,
  "sions": 942,
  "ner": 943,
  "planet": 944,
  "happen": 945,
  "Why": 946,
  "proble@@": 947,
  "iting": 948,
  "thou@@": 949,
  "va@@": 950,
  "ars": 951,
  "though": 952,
  "ments": 953,
  "without": 954,
  "tech@@": 955,
  "gover@@": 956,
  "dra@@": 957,
  "kin@@": 958,
  "pen@@": 959,
  "goes": 960,
  "uch": 961,
  "ican": 962,
  "tor": 963,
  "ome@@": 964,
  "sec@@": 965,
  "else": 966,
  "across": 967,
  "makes": 968,
  "sing": 969,
  "ling": 970,
  "bro@@": 971,
  "clu@@": 972,
  "cra@@": 973,
  "off@@": 974,
  "ven@@": 975,
  "zing": 976,
  "suc@@": 977,
  "Ma@@": 978,
  "ig@@": 979,
  "differ@@": 980,
  "8": 981,
  "bad": 982,
  "mis@@": 983,
  "din@@": 984,
  "dec@@": 985,
  "nor@@": 986,
  "God": 987,
  "els": 988,
  "rest": 989,
  "Let": 990,
  "sen@@": 991,
  "contro@@": 992,
  "lit@@": 993,
  "cle@@": 994,
  "days": 995,
  "hu@@": 996,
  "educ@@": 997,
  "beg@@": 998,
  "ken": 999,
  "ba@@": 1000,
  "et@@": 1001,
  "contin@@": 1002,
  "Al@@": 1003,
  "S": 1004,
  "glob@@": 1005,
  "of@@": 1006,
  "India": 1007,
  "pas@@": 1008,
  "ape": 1009,
  "1": 1010,
  "ber@@": 1011,
  "dro@@": 1012,
  "sm@@": 1013,
  "led": 1014,
  "computer": 1015,
  "sible": 1016,
  "ick": 1017,
  "ster@@": 1018,
  "uni@@": 1019,
  "wonder@@": 1020,
  "pop@@": 1021,
  "direc@@": 1022,
  "En@@": 1023,
  "with@@": 1024,
  "ft": 1025,
  "ut": 1026,
  "ia": 1027,
  "mer@@": 1028,
  "speci@@": 1029,
  "project": 1030,
  "ton": 1031,
  "sion@@": 1032,
  "vol@@": 1033,
  "progra@@": 1034,
  "u": 1035,
  "lon@@": 1036,
  "ace": 1037,
  "ank": 1038,
  "hand": 1039,
  "later": 1040,
  "net": 1041,
  "moment": 1042,
  "ow": 1043,
  "cont@@": 1044,
  "ish": 1045,
  "des": 1046,
  "stan@@": 1047,
  "7": 1048,
  "Inter@@": 1049,
  "Li@@": 1050,
  "pu@@": 1051,
  "her@@": 1052,
  "possible": 1053,
  "oce@@": 1054,
  "por@@": 1055,
  "wal@@": 1056,
  "ica": 1057,
  "New": 1058,
  "stre@@": 1059,
  "per": 1060,
  "ye@@": 1061,
  "fig@@": 1062,
  "arti@@": 1063,
  "&#91;": 1064,
  "&#93;": 1065,
  "id@@": 1066,
  "4": 1067,
  "3": 1068,
  "simp@@": 1069,
  "serv@@": 1070,
  "hy@@": 1071,
  "cu@@": 1072,
  "100": 1073,
  "tru@@": 1074,
  "9": 1075,
  "typ@@": 1076,
  "Oh": 1077,
  "han@@": 1078,
  "6": 1079,
  "dia": 1080,
  "fe": 1081,
  "begin@@": 1082,
  "hel@@": 1083,
  "men": 1084,
  "duc@@": 1085,
  "ich": 1086,
  "ator": 1087,
  "ens": 1088,
  "connec@@": 1089,
  "cep@@": 1090,
  "stra@@": 1091,
  "200@@": 1092,
  "30": 1093,
  "da@@": 1094,
  "win@@": 1095,
  "est@@": 1096,
  "solu@@": 1097,
  "model": 1098,
  "vo@@": 1099,
  "compu@@": 1100,
  "e-@@": 1101,
  "interest@@": 1102,
  "video": 1103,
  "boo@@": 1104,
  "vel@@": 1105,
  "sch@@": 1106,
  "ject": 1107,
  "materi@@": 1108,
  "scri@@": 1109,
  "fic@@": 1110,
  "indu@@": 1111,
  "dr@@": 1112,
  "ines": 1113,
  "open": 1114,
  "t-@@": 1115,
  "bur@@": 1116,
  "name": 1117,
  "Ar@@": 1118,
  "ming": 1119,
  "individu@@": 1120,
  "tot@@": 1121,
  "De@@": 1122,
  "prof@@": 1123,
  "tle": 1124,
  "20@@": 1125,
  "mul@@": 1126,
  "person@@": 1127,
  "sor@@": 1128,
  "V": 1129,
  "ative": 1130,
  "ur": 1131,
  "resul@@": 1132,
  "ker": 1133,
  "prin@@": 1134,
  "acc@@": 1135,
  "ros@@": 1136,
  "o-@@": 1137,
  "cam@@": 1138,
  "tually": 1139,
  "syste@@": 1140,
  "B": 1141,
  "ool": 1142,
  "anc@@": 1143,
  "ju@@": 1144,
  "aga@@": 1145,
  "ls": 1146,
  "net@@": 1147,
  "ei@@": 1148,
  "ous@@": 1149,
  "bre@@": 1150,
  "equ@@": 1151,
  "air": 1152,
  "dig@@": 1153,
  "ide@@": 1154,
  "past": 1155,
  "int": 1156,
  "gen": 1157,
  "diff@@": 1158,
  "pati@@": 1159,
  "od": 1160,
  "archit@@": 1161,
  "alk": 1162,
  "ed@@": 1163,
  "D": 1164,
  "ook": 1165,
  "bel@@": 1166,
  "Is": 1167,
  "machine": 1168,
  "ely": 1169,
  "China": 1170,
  "presen@@": 1171,
  "CA": 1172,
  "medi@@": 1173,
  "ho@@": 1174,
  "York": 1175,
  "den@@": 1176,
  "15": 1177,
  "lar": 1178,
  "wit@@": 1179,
  "ater": 1180,
  "mic@@": 1181,
  "wan@@": 1182,
  "film": 1183,
  "kers": 1184,
  "inf@@": 1185,
  "sli@@": 1186,
  "ond": 1187,
  "era": 1188,
  "beh@@": 1189,
  "40": 1190,
  "ren@@": 1191,
  "peri@@": 1192,
  "bra@@": 1193,
  "ban@@": 1194,
  "open@@": 1195,
  "ople": 1196,
  "Z@@": 1197,
  "die": 1198,
  "No@@": 1199,
  "human@@": 1200,
  "Afr@@": 1201,
  "nam@@": 1202,
  "den": 1203,
  "dru@@": 1204,
  "C": 1205,
  "spir@@": 1206,
  "anti@@": 1207,
  ",@@": 1208,
  "met": 1209,
  "af@@": 1210,
  "z": 1211,
  "nec@@": 1212,
  "La@@": 1213,
  "Be@@": 1214,
  "fil@@": 1215,
  "om": 1216,
  "oot": 1217,
  "vie@@": 1218,
  "yp@@": 1219,
  "even@@": 1220,
  "T": 1221,
  "ole": 1222,
  "very@@": 1223,
  "ably": 1224,
  "mach@@": 1225,
  "P": 1226,
  "ause": 1227,
  "ff": 1228,
  "M": 1229,
  "ough": 1230,
  "devel@@": 1231,
  "ould": 1232,
  "ybe": 1233,
  "G": 1234,
  "H": 1235,
  "TE@@": 1236,
  "/": 1237,
  "Q@@": 1238,
  "quot@@": 1239,
  "thin@@": 1240,
  "On@@": 1241,
  "E": 1242,
  "O": 1243,
  "divi@@": 1244,
  "import@@": 1245,
  "F": 1246,
  "tting": 1247,
  "dat@@": 1248,
  "mom@@": 1249,
  "X@@": 1250,
  "hal@@": 1251,
  "lob@@": 1252,
  "arch@@": 1253,
  "W": 1254,
  "q": 1255,
  "&apos;@@": 1256,
  "L": 1257,
  "ere": 1258,
  "een": 1259,
  "nd": 1260,
  "K": 1261,
  "R": 1262,
  "dn": 1263,
  "$": 1264,
  "cour@@": 1265,
  "prob@@": 1266,
  "N": 1267,
  "X": 1268,
  "000": 1269,
  "v": 1270,
  "vide@@": 1271,
  "-": 1272,
  "J": 1273,
  "U": 1274,
  "&@@": 1275,
  "q@@": 1276,
  "Y": 1277,
  "Q": 1278,
  "Z": 1279,
  "%": 1280,
  "é": 1281,
  "+": 1282,
  "ö@@": 1283,
  "#": 1284,
  "–": 1285,
  ")": 1286,
  "—": 1287,
  "á@@": 1288,
  "é@@": 1289,
  "j": 1290,
  "ù": 1291,
  "ó": 1292,
  "ü@@": 1293,
  "(": 1294,
  "@": 1295,
  "=": 1296,
  "í@@": 1297,
  "è@@": 1298,
  "ã@@": 1299,
  "ñ@@": 1300,
  "ó@@": 1301,
  "^": 1302,
  "ä@@": 1303,
  "ï@@": 1304,
  "”": 1305,
  "*": 1306,
  "ù@@": 1307,
  "â@@": 1308,
  "É@@": 1309,
  "“": 1310,
  "√": 1311,
  "ā@@": 1312,
  "£": 1313,
  "ç@@": 1314,
  "±": 1315,
  "…": 1316,
  "ú@@": 1317,
  "ê@@": 1318,
  "à@@": 1319,
  "ò@@": 1320,
  "º@@": 1321,
  "˚": 1322,
  "Ç@@": 1323
}