{
  "<EOS>": 0,
  "<GO>": 1,
  "<UNK>": 2,
  ".": 3,
  ",": 4,
  "de": 5,
  "en": 6,
  "een": 7,
  "het": 8,
  "van": 9,
  "is": 10,
  "in": 11,
  "dat": 12,
  "te": 13,
  "je": 14,
  "k@@": 15,
  "ik": 16,
  "die": 17,
  "ge@@": 18,
  "we": 19,
  "zijn": 20,
  "ver@@": 21,
  "er": 22,
  "op": 23,
  "niet": 24,
  "be@@": 25,
  "om": 26,
  "ze": 27,
  "&quot;": 28,
  "er@@": 29,
  "d@@": 30,
  "met": 31,
  "st@@": 32,
  "en@@": 33,
  "t@@": 34,
  "Ik": 35,
  "voor": 36,
  ":": 37,
  "s@@": 38,
  "als": 39,
  "z@@": 40,
  "s": 41,
  "e@@": 42,
  "g@@": 43,
  "den": 44,
  "in@@": 45,
  "aan": 46,
  "t": 47,
  "f@@": 48,
  "Het": 49,
  "v@@": 50,
  "b@@": 51,
  "i@@": 52,
  "on@@": 53,
  "?": 54,
  "re@@": 55,
  "wat": 56,
  "g": 57,
  "gen": 58,
  "le@@": 59,
  "m@@": 60,
  "u@@": 61,
  "k": 62,
  "En": 63,
  "was": 64,
  "a@@": 65,
  "d": 66,
  "over": 67,
  "o@@": 68,
  "a": 69,
  "dit": 70,
  "an@@": 71,
  "naar": 72,
  "hebben": 73,
  "--": 74,
  "ie@@": 75,
  "ten": 76,
  "deze": 77,
  "di@@": 78,
  "&apos;": 79,
  "n@@": 80,
  "op@@": 81,
  "of": 82,
  "dan": 83,
  "maar": 84,
  "-@@": 85,
  "p@@": 86,
  "l@@": 87,
  "e": 88,
  "We": 89,
  "al@@": 90,
  "we@@": 91,
  "at@@": 92,
  "al": 93,
  "uit": 94,
  "mensen": 95,
  "ar@@": 96,
  "ken": 97,
  "el@@": 98,
  "w@@": 99,
  "M@@": 100,
  "uit@@": 101,
  "eren": 102,
  "S@@": 103,
  "De": 104,
  "sch@@": 105,
  "kunnen": 106,
  "door": 107,
  "r@@": 108,
  "h@@": 109,
  "mijn": 110,
  "me": 111,
  "voor@@": 112,
  "de@@": 113,
  "c@@": 114,
  "ing": 115,
  "D@@": 116,
  "te@@": 117,
  "sp@@": 118,
  "Maar": 119,
  "om@@": 120,
  "ons": 121,
  "ch@@": 122,
  "st": 123,
  "cht": 124,
  "kan": 125,
  "ie": 126,
  "Dit": 127,
  "me@@": 128,
  "zo": 129,
  "W@@": 130,
  "li@@": 131,
  "B@@": 132,
  "doen": 133,
  "ook": 134,
  "ven": 135,
  "m": 136,
  "or@@": 137,
  "ma@@": 138,
  "zien": 139,
  "hij": 140,
  "Ze": 141,
  "p": 142,
  "veel": 143,
  "bij": 144,
  "Dat": 145,
  "ij@@": 146,
  "gen@@": 147,
  "oo@@": 148,
  "gel@@": 149,
  "jaar": 150,
  "kt": 151,
  "N@@": 152,
  "l": 153,
  "ste": 154,
  "it@@": 155,
  "aan@@": 156,
  "waar": 157,
  "zou": 158,
  "geen": 159,
  "ur@@": 160,
  "aa@@": 161,
  "atie": 162,
  "H@@": 163,
  "meer": 164,
  "A@@": 165,
  "el": 166,
  "gaan": 167,
  "f": 168,
  "V@@": 169,
  "gev@@": 170,
  "hoe": 171,
  "ra@@": 172,
  "nog": 173,
  "T@@": 174,
  "ne@@": 175,
  "heeft": 176,
  "i": 177,
  "ingen": 178,
  "waar@@": 179,
  "wereld": 180,
  "j@@": 181,
  "hun": 182,
  "la@@": 183,
  "aar@@": 184,
  "oor@@": 185,
  "onder@@": 186,
  "worden": 187,
  "hier": 188,
  "vol@@": 189,
  "Dus": 190,
  "ti@@": 191,
  "ge": 192,
  "onze": 193,
  "ijk": 194,
  "et": 195,
  "sen": 196,
  "tot": 197,
  "nu": 198,
  "maken": 199,
  "ende": 200,
  "iets": 201,
  "der@@": 202,
  "men": 203,
  "Je": 204,
  "is@@": 205,
  "heid": 206,
  "G@@": 207,
  "pen": 208,
  "P@@": 209,
  "am@@": 210,
  "ri@@": 211,
  "he@@": 212,
  "dingen": 213,
  "over@@": 214,
  "il@@": 215,
  "ro@@": 216,
  "Als": 217,
  "leven": 218,
  "zi@@": 219,
  "K@@": 220,
  "men@@": 221,
  "E@@": 222,
  "J@@": 223,
  "da@@": 224,
  "ze@@": 225,
  "tie": 226,
  "heb": 227,
  "af@@": 228,
  "geb@@": 229,
  "C@@": 230,
  "andere": 231,
  "at": 232,
  "oe@@": 233,
  "ol@@": 234,
  "ter@@": 235,
  "der": 236,
  "ou@@": 237,
  "had": 238,
  "jullie": 239,
  "len": 240,
  "y@@": 241,
  "♫": 242,
  "aal": 243,
  "den@@": 244,
  "per@@": 245,
  "ap@@": 246,
  "kken": 247,
  "ste@@": 248,
  "an": 249,
  "wer@@": 250,
  "wel": 251,
  "lo@@": 252,
  "ijke": 253,
  "O@@": 254,
  "ul@@": 255,
  "ers": 256,
  "Hij": 257,
  "moeten": 258,
  "wij@@": 259,
  "echt": 260,
  "-": 261,
  "end": 262,
  "gt": 263,
  "zal": 264,
  "u": 265,
  "gr@@": 266,
  "gaat": 267,
  "tr@@": 268,
  "heel": 269,
  "R@@": 270,
  "dus": 271,
  "L@@": 272,
  "se@@": 273,
  "omdat": 274,
  "komen": 275,
  "o": 276,
  "do@@": 277,
  "ter": 278,
  "se": 279,
  "Z@@": 280,
  "Wat": 281,
  "ac@@": 282,
  "vo@@": 283,
  "sche": 284,
  "stu@@": 285,
  "ale": 286,
  "ve@@": 287,
  "moet": 288,
  "1@@": 289,
  "and": 290,
  "Er": 291,
  "In": 292,
  "mo@@": 293,
  "wil": 294,
  "ken@@": 295,
  "ont@@": 296,
  "ond": 297,
  "ben": 298,
  "I@@": 299,
  "zoals": 300,
  "ig@@": 301,
  "ij": 302,
  "ster@@": 303,
  "twee": 304,
  "eld": 305,
  "wordt": 306,
  "zich": 307,
  "tijd": 308,
  "sten": 309,
  "bo@@": 310,
  "één": 311,
  "ging": 312,
  "zen": 313,
  "goed": 314,
  "chten": 315,
  "Een": 316,
  "ic@@": 317,
  "zei": 318,
  "zelf": 319,
  "zo@@": 320,
  "ta@@": 321,
  "del@@": 322,
  "na": 323,
  "tel@@": 324,
  "ig": 325,
  "cht@@": 326,
  "iek": 327,
  "aten": 328,
  "no@@": 329,
  "bij@@": 330,
  "erd": 331,
  "eer@@": 332,
  "waren": 333,
  "os@@": 334,
  "es": 335,
  "daar": 336,
  "elen": 337,
  "wa@@": 338,
  "ijk@@": 339,
  "ot@@": 340,
  "rij@@": 341,
  "kte": 342,
  "eerste": 343,
  "ger@@": 344,
  "laten": 345,
  "dig": 346,
  "nen": 347,
  "du@@": 348,
  "iteit": 349,
  "au@@": 350,
  "con@@": 351,
  "ding": 352,
  "us": 353,
  "geven": 354,
  "denk": 355,
  "ni@@": 356,
  "tu@@": 357,
  "ru@@": 358,
  "ke@@": 359,
  "le": 360,
  "em@@": 361,
  "alleen": 362,
  "ens": 363,
  "mee": 364,
  "vi@@": 365,
  "alle": 366,
  "haar": 367,
  "lu@@": 368,
  "manier": 369,
  "stel@@": 370,
  "staat": 371,
  "werd": 372,
  "open": 373,
  "weet": 374,
  "id": 375,
  "ing@@": 376,
  "w": 377,
  "daar@@": 378,
  "denken": 379,
  "lan@@": 380,
  "moe@@": 381,
  "soort": 382,
  "ele": 383,
  "zeggen": 384,
  "bl@@": 385,
  "lijk": 386,
  "mij": 387,
  "th@@": 388,
  "to@@": 389,
  "un@@": 390,
  "oel": 391,
  "van@@": 392,
  "toe@@": 393,
  "dt": 394,
  "ber@@": 395,
  "bi@@": 396,
  "jes": 397,
  "ec@@": 398,
  "kle@@": 399,
  "kk@@": 400,
  "lie@@": 401,
  "ab@@": 402,
  "delijk": 403,
  "grote": 404,
  "ies": 405,
  "hele": 406,
  "n": 407,
  "hoe@@": 408,
  "komt": 409,
  "erg": 410,
  "allemaal": 411,
  "si@@": 412,
  "...": 413,
  "toen": 414,
  "es@@": 415,
  "pa@@": 416,
  "gi@@": 417,
  "schap": 418,
  "aar": 419,
  "kinderen": 420,
  "2@@": 421,
  "kun@@": 422,
  "ei@@": 423,
  "her@@": 424,
  "ree@@": 425,
  "str@@": 426,
  "werk": 427,
  "ke": 428,
  "y": 429,
  "fe@@": 430,
  "mi@@": 431,
  "sta@@": 432,
  "ft": 433,
  "br@@": 434,
  "vor@@": 435,
  "tre@@": 436,
  "na@@": 437,
  "hel@@": 438,
  "sie": 439,
  "nieuwe": 440,
  "as@@": 441,
  "gens": 442,
  "hem": 443,
  "kijken": 444,
  "and@@": 445,
  "bel@@": 446,
  "on": 447,
  "ische": 448,
  "ko@@": 449,
  "ere": 450,
  "onden": 451,
  "net": 452,
  "werken": 453,
  "af": 454,
  "su@@": 455,
  "gro@@": 456,
  "dige": 457,
  "weten": 458,
  "dr@@": 459,
  "wel@@": 460,
  "va@@": 461,
  "id@@": 462,
  "uur": 463,
  "inter@@": 464,
  "zouden": 465,
  "kel@@": 466,
  "hu@@": 467,
  "ik@@": 468,
  "ef@@": 469,
  "ige": 470,
  "oord": 471,
  "dag": 472,
  "ger": 473,
  "ur": 474,
  "ha@@": 475,
  "vinden": 476,
  "nodig": 477,
  "sla@@": 478,
  "ven@@": 479,
  "eens": 480,
  "ziet": 481,
  "sl@@": 482,
  "deren": 483,
  "han@@": 484,
  "isch": 485,
  "ga": 486,
  "ks": 487,
  "gra@@": 488,
  "ein@@": 489,
  "deel": 490,
  "dig@@": 491,
  "alles": 492,
  "tij@@": 493,
  "oren": 494,
  "app@@": 495,
  "staan": 496,
  "eerd": 497,
  "ou": 498,
  "aak": 499,
  "ief": 500,
  "ga@@": 501,
  "x@@": 502,
  "gelu@@": 503,
  "idee": 504,
  "willen": 505,
  "ep@@": 506,
  "zon@@": 507,
  "ple@@": 508,
  "mu@@": 509,
  "ker": 510,
  "hadden": 511,
  "zullen": 512,
  "plan@@": 513,
  "gebeur@@": 514,
  "wi@@": 515,
  "ten@@": 516,
  "delen": 517,
  "ed": 518,
  "F@@": 519,
  "krijgen": 520,
  "ouw@@": 521,
  "kunt": 522,
  "enen": 523,
  "aam": 524,
  "iemand": 525,
  "pl@@": 526,
  "drie": 527,
  "land": 528,
  "per": 529,
  "want": 530,
  "ex@@": 531,
  "weten@@": 532,
  "ach@@": 533,
  "Hier": 534,
  "gewoon": 535,
  "iden": 536,
  "kleine": 537,
  "verander@@": 538,
  "mid@@": 539,
  "besch@@": 540,
  "Deze": 541,
  "hebt": 542,
  "kan@@": 543,
  "dacht": 544,
  "beg@@": 545,
  "chte": 546,
  "oor": 547,
  "ë@@": 548,
  "erde": 549,
  "gebruiken": 550,
  "blij@@": 551,
  "maa@@": 552,
  "schapp@@": 553,
  "baar": 554,
  "vrou@@": 555,
  "wij": 556,
  "ged@@": 557,
  "ker@@": 558,
  "weg": 559,
  "ert": 560,
  "ant": 561,
  "ongeveer": 562,
  "TED": 563,
  "im@@": 564,
  "man": 565,
  "za@@": 566,
  "zeer": 567,
  "bin@@": 568,
  "sel@@": 569,
  "it": 570,
  "ati@@": 571,
  "spre@@": 572,
  "5": 573,
  "elkaar": 574,
  "king": 575,
  "paar": 576,
  "zor@@": 577,
  "versch@@": 578,
  "misschien": 579,
  "tegen": 580,
  "onder": 581,
  "!": 582,
  "ent": 583,
  "tussen": 584,
  "lij@@": 585,
  "ijn": 586,
  "of@@": 587,
  "zonder": 588,
  "gd": 589,
  "kon": 590,
  "zelfs": 591,
  "aag": 592,
  "Hoe": 593,
  "mer@@": 594,
  "vri@@": 595,
  "geleden": 596,
  "toe": 597,
  "verk@@": 598,
  "zij": 599,
  "ders": 600,
  "pre@@": 601,
  "zoe@@": 602,
  "ek": 603,
  "vraag": 604,
  "eel": 605,
  "vel@@": 606,
  "iz@@": 607,
  "Nu": 608,
  "keer": 609,
  "the@@": 610,
  "verhaal": 611,
  "ss@@": 612,
  "hou@@": 613,
  "est": 614,
  "tal@@": 615,
  "mm@@": 616,
  "som@@": 617,
  "kwam": 618,
  "gesch@@": 619,
  "nie@@": 620,
  "loo@@": 621,
  "h": 622,
  "geloo@@": 623,
  "hoo@@": 624,
  "doet": 625,
  "ank": 626,
  "produc@@": 627,
  "verschillende": 628,
  "plaat@@": 629,
  "omen": 630,
  "nooit": 631,
  "voorbeeld": 632,
  "dru@@": 633,
  "ff@@": 634,
  "bu@@": 635,
  ";": 636,
  "eet": 637,
  "plaats": 638,
  "lin@@": 639,
  "houden": 640,
  "ouw": 641,
  "terug": 642,
  "door@@": 643,
  "est@@": 644,
  "groot@@": 645,
  "ieve": 646,
  "anders": 647,
  "buit@@": 648,
  "us@@": 649,
  "ron@@": 650,
  "Amerik@@": 651,
  "ds": 652,
  "oon": 653,
  "elke": 654,
  "all@@": 655,
  "probleem": 656,
  "0": 657,
  "elijk": 658,
  "bre@@": 659,
  "ood": 660,
  "pro@@": 661,
  "oc@@": 662,
  "nemen": 663,
  "chti@@": 664,
  "man@@": 665,
  "ard": 666,
  "zit": 667,
  "water": 668,
  "kelijk": 669,
  "hen": 670,
  "altijd": 671,
  "mar@@": 672,
  "jaren": 673,
  "eigenlijk": 674,
  "zie": 675,
  "heden": 676,
  "19@@": 677,
  "bed@@": 678,
  "waarom": 679,
  "ind": 680,
  "min@@": 681,
  "tra@@": 682,
  "technologie": 683,
  "wil@@": 684,
  "Ver@@": 685,
  "3@@": 686,
  "bewe@@": 687,
  "aties": 688,
  "ist@@": 689,
  "et@@": 690,
  "vers@@": 691,
  "ontwikkel@@": 692,
  "steeds": 693,
  "par@@": 694,
  "werkt": 695,
  "foto": 696,
  "laat": 697,
  "ver": 698,
  "uren": 699,
  "wanneer": 700,
  "kant": 701,
  "eigen": 702,
  "kten": 703,
  "gemaakt": 704,
  "ts": 705,
  "war@@": 706,
  "um": 707,
  "halen": 708,
  "maakt": 709,
  "even": 710,
  "leren": 711,
  "zie@@": 712,
  "On@@": 713,
  "ën": 714,
  "hand@@": 715,
  "2": 716,
  "rel@@": 717,
  "pra@@": 718,
  "tuur": 719,
  "win@@": 720,
  "stellen": 721,
  "kkel@@": 722,
  "hi@@": 723,
  "ijkheid": 724,
  "miljoen": 725,
  "bedrij@@": 726,
  "gebru@@": 727,
  "bent": 728,
  ".000": 729,
  "oon@@": 730,
  "val@@": 731,
  "har@@": 732,
  "hier@@": 733,
  "iedereen": 734,
  "geld": 735,
  "ontde@@": 736,
  "Al@@": 737,
  "weer": 738,
  "sy@@": 739,
  "ep": 740,
  "as": 741,
  "draa@@": 742,
  "sle@@": 743,
  "samen@@": 744,
  "Toen": 745,
  "sc@@": 746,
  "zegt": 747,
  "vragen": 748,
  "8@@": 749,
  "eu@@": 750,
  "krij@@": 751,
  "sel": 752,
  "6@@": 753,
  "md": 754,
  "ite": 755,
  "ieke": 756,
  "ren": 757,
  "alen": 758,
  "ings@@": 759,
  "lijke": 760,
  "vroe@@": 761,
  "jon@@": 762,
  "eerde": 763,
  "lang": 764,
  "vertellen": 765,
  "brengen": 766,
  "procent": 767,
  "ontwer@@": 768,
  "Mijn": 769,
  "woor@@": 770,
  "pas@@": 771,
  "belangrijk": 772,
  "beetje": 773,
  "5@@": 774,
  "for@@": 775,
  "pu@@": 776,
  "ad@@": 777,
  "00": 778,
  "aantal": 779,
  "ba@@": 780,
  "il": 781,
  "dollar": 782,
  "ir@@": 783,
  "systeem": 784,
  "nieuw": 785,
  "vij@@": 786,
  "bare": 787,
  "Ne@@": 788,
  "wen": 789,
  "lei@@": 790,
  "ho@@": 791,
  "onderzoe@@": 792,
  "wilde": 793,
  "vis@@": 794,
  "laatste": 795,
  "j": 796,
  "hoop": 797,
  "gew@@": 798,
  "binnen": 799,
  "voe@@": 800,
  "goede": 801,
  "mogelijk": 802,
  "ans": 803,
  "vier": 804,
  "po@@": 805,
  "ïn@@": 806,
  "zitten": 807,
  "9@@": 808,
  "belangr@@": 809,
  "ari@@": 810,
  "tegen@@": 811,
  "beter": 812,
  "ting": 813,
  "Talk": 814,
  "10": 815,
  "licht": 816,
  "U@@": 817,
  "to": 818,
  "vandaag": 819,
  "elk": 820,
  "ve": 821,
  "aanse": 822,
  "tw@@": 823,
  "zodat": 824,
  "gingen": 825,
  "Die": 826,
  "ben@@": 827,
  "kel": 828,
  "moo@@": 829,
  "enden": 830,
  "Transcript": 831,
  "Subtitles": 832,
  "dui@@": 833,
  "ele@@": 834,
  "ooit": 835,
  "Op": 836,
  "antw@@": 837,
  "grot@@": 838,
  "landen": 839,
  "punt": 840,
  "ob@@": 841,
  "kl@@": 842,
  "em": 843,
  "pt": 844,
  "volgende": 845,
  "niets": 846,
  "gebeurt": 847,
  "vlie@@": 848,
  "moment": 849,
  "groot": 850,
  "raa@@": 851,
  "St@@": 852,
  "meest": 853,
  "nam@@": 854,
  "vla@@": 855,
  "sen@@": 856,
  "genoeg": 857,
  "hoof@@": 858,
  "4@@": 859,
  "een@@": 860,
  "lich@@": 861,
  "interess@@": 862,
  "ander": 863,
  "Afrika": 864,
  "ment": 865,
  "tje": 866,
  "oom": 867,
  "gedaan": 868,
  "7@@": 869,
  "ï@@": 870,
  "0@@": 871,
  "vre@@": 872,
  "probe@@": 873,
  "ling": 874,
  "teren": 875,
  "b": 876,
  "veranderen": 877,
  "beginnen": 878,
  "begrijpen": 879,
  "elt": 880,
  "gewel@@": 881,
  ".@@": 882,
  "1": 883,
  "Waarom": 884,
  "onnen": 885,
  "sli@@": 886,
  "energie": 887,
  "kom@@": 888,
  "ton@@": 889,
  "ser@@": 890,
  "gels": 891,
  "deed": 892,
  "werel@@": 893,
  "50": 894,
  "proberen": 895,
  "tie@@": 896,
  "ci@@": 897,
  "ë": 898,
  "bouwen": 899,
  "heen": 900,
  "konden": 901,
  "Ch@@": 902,
  "begon": 903,
  "gezien": 904,
  "achter@@": 905,
  "dden": 906,
  "geeft": 907,
  "ars": 908,
  "dra@@": 909,
  "problemen": 910,
  "rec@@": 911,
  "betekent": 912,
  "samen": 913,
  "cul@@": 914,
  "erv@@": 915,
  "eten": 916,
  "moeil@@": 917,
  "pe@@": 918,
  "scha@@": 919,
  "ggen": 920,
  "sch": 921,
  "ali@@": 922,
  "ire": 923,
  "spel@@": 924,
  "organis@@": 925,
  "toch": 926,
  "un": 927,
  "slechts": 928,
  "creë@@": 929,
  "20": 930,
  "mogel@@": 931,
  "tro@@": 932,
  "gemeen@@": 933,
  "zetten": 934,
  "3": 935,
  "8": 936,
  "anden": 937,
  "minder": 938,
  "ën@@": 939,
  "mis@@": 940,
  "ssen": 941,
  "ien": 942,
  "lie": 943,
  "natuurlijk": 944,
  "huis": 945,
  "land@@": 946,
  "Dan": 947,
  "fil@@": 948,
  "wor@@": 949,
  "cen@@": 950,
  "groe@@": 951,
  "enkele": 952,
  "kra@@": 953,
  "helemaal": 954,
  "gele@@": 955,
  "eff@@": 956,
  "dezelfde": 957,
  "snel": 958,
  "milj@@": 959,
  "ties": 960,
  "Zo": 961,
  "werden": 962,
  "oud": 963,
  "vin@@": 964,
  "ruimte": 965,
  "é": 966,
  "econom@@": 967,
  "nat@@": 968,
  "aren": 969,
  "vrij@@": 970,
  "kennen": 971,
  "vertel@@": 972,
  "ces": 973,
  "ters": 974,
  "hersen@@": 975,
  "S": 976,
  "bepaal@@": 977,
  "mige": 978,
  "stop@@": 979,
  "kijkt": 980,
  "kracht": 981,
  "lijkt": 982,
  "ideeën": 983,
  "verder": 984,
  "ban@@": 985,
  "wie": 986,
  "struc@@": 987,
  "dere": 988,
  "ju@@": 989,
  "beelden": 990,
  "com@@": 991,
  "kwa@@": 992,
  "nieu@@": 993,
  "rond": 994,
  "zag": 995,
  "itu@@": 996,
  "zeker": 997,
  "fun@@": 998,
  "leu@@": 999,
  "oplos@@": 1000,
  "les": 1001,
  "ite@@": 1002,
  "spe@@": 1003,
  "schrij@@": 1004,
  "menselijke": 1005,
  "ef": 1006,
  "voed@@": 1007,
  "kop@@": 1008,
  "zaken": 1009,
  "waarin": 1010,
  "emen": 1011,
  "deel@@": 1012,
  "are": 1013,
  "snel@@": 1014,
  "oten": 1015,
  "r": 1016,
  "moest": 1017,
  "berei@@": 1018,
  "daa@@": 1019,
  "In@@": 1020,
  "praten": 1021,
  "boek": 1022,
  "A": 1023,
  "vorm": 1024,
  "waarschijnlijk": 1025,
  "Om@@": 1026,
  "teru@@": 1027,
  "let@@": 1028,
  "bew@@": 1029,
  "Ge@@": 1030,
  "hal@@": 1031,
  "enor@@": 1032,
  "toekomst": 1033,
  "aart": 1034,
  "waarop": 1035,
  "x": 1036,
  "persoon": 1037,
  "eenv@@": 1038,
  "terwijl": 1039,
  "dens": 1040,
  "meeste": 1041,
  "gang": 1042,
  "sk@@": 1043,
  "gebruikt": 1044,
  "tweede": 1045,
  "hetzelfde": 1046,
  "bla@@": 1047,
  "kend": 1048,
  "Want": 1049,
  "Daar": 1050,
  "bet@@": 1051,
  "olog@@": 1052,
  "kind": 1053,
  "ect": 1054,
  "inform@@": 1055,
  "beeld": 1056,
  "6": 1057,
  "soor@@": 1058,
  "Zo@@": 1059,
  "soci@@": 1060,
  "qu@@": 1061,
  "school": 1062,
  "tion@@": 1063,
  "7": 1064,
  "mp@@": 1065,
  "En@@": 1066,
  "boe@@": 1067,
  "lic@@": 1068,
  "iet": 1069,
  "4": 1070,
  "cel@@": 1071,
  "ation@@": 1072,
  "net@@": 1073,
  "hand": 1074,
  "ene": 1075,
  "uur@@": 1076,
  "comple@@": 1077,
  "sa@@": 1078,
  "stan@@": 1079,
  "ili@@": 1080,
  "ouwen": 1081,
  "mon@@": 1082,
  "stri@@": 1083,
  "speci@@": 1084,
  "stand": 1085,
  "nu@@": 1086,
  "ving": 1087,
  "alis@@": 1088,
  "ide": 1089,
  "India": 1090,
  "fin@@": 1091,
  "wis@@": 1092,
  "ed@@": 1093,
  "sec@@": 1094,
  "neer": 1095,
  "evolu@@": 1096,
  "mani@@": 1097,
  "meter": 1098,
  "mor@@": 1099,
  "An@@": 1100,
  "polit@@": 1101,
  "later": 1102,
  "minu@@": 1103,
  "ne": 1104,
  "zes": 1105,
  "bor@@": 1106,
  "fan@@": 1107,
  "je@@": 1108,
  "gener@@": 1109,
  "ine": 1110,
  "oog@@": 1111,
  "av@@": 1112,
  "ut": 1113,
  "ied": 1114,
  "ijn@@": 1115,
  "spec@@": 1116,
  "bru@@": 1117,
  "pri@@": 1118,
  "sti@@": 1119,
  "gan@@": 1120,
  "wat@@": 1121,
  "begin": 1122,
  "gene@@": 1123,
  "ma": 1124,
  "data": 1125,
  "La@@": 1126,
  "ag@@": 1127,
  "or": 1128,
  "stre@@": 1129,
  "els": 1130,
  "mil@@": 1131,
  "real@@": 1132,
  "tten": 1133,
  "9": 1134,
  "t-@@": 1135,
  "bra@@": 1136,
  "compu@@": 1137,
  "lev@@": 1138,
  "eg@@": 1139,
  "sing": 1140,
  "ong": 1141,
  "project": 1142,
  "int": 1143,
  "pat@@": 1144,
  "God": 1145,
  "spr@@": 1146,
  "tru@@": 1147,
  "cre@@": 1148,
  "oce@@": 1149,
  "fam@@": 1150,
  "progra@@": 1151,
  "goe@@": 1152,
  "act": 1153,
  "del": 1154,
  "tast@@": 1155,
  "sh@@": 1156,
  "30": 1157,
  "ust": 1158,
  "bot@@": 1159,
  "dan@@": 1160,
  "kers": 1161,
  "ort": 1162,
  "stor@@": 1163,
  "ster": 1164,
  "gin@@": 1165,
  "ys@@": 1166,
  "ws": 1167,
  "200@@": 1168,
  "eer": 1169,
  "tri@@": 1170,
  "tech@@": 1171,
  "one": 1172,
  "ist": 1173,
  "materi@@": 1174,
  "stra@@": 1175,
  "ia": 1176,
  "cu@@": 1177,
  "olo@@": 1178,
  "univer@@": 1179,
  "Of": 1180,
  "am": 1181,
  "wal@@": 1182,
  "dia": 1183,
  "mand": 1184,
  "100": 1185,
  "film": 1186,
  "simp@@": 1187,
  "dic@@": 1188,
  "fa@@": 1189,
  "maal": 1190,
  "boo@@": 1191,
  "contro@@": 1192,
  "ren@@": 1193,
  "roe@@": 1194,
  "comp@@": 1195,
  "bas@@": 1196,
  "ost": 1197,
  "aring": 1198,
  "open@@": 1199,
  "natuur@@": 1200,
  "gs": 1201,
  "log@@": 1202,
  "go@@": 1203,
  "col@@": 1204,
  "sin@@": 1205,
  "conf@@": 1206,
  ",@@": 1207,
  "Be@@": 1208,
  "co@@": 1209,
  "eling": 1210,
  "ica": 1211,
  "ler": 1212,
  "Ma@@": 1213,
  "New": 1214,
  "nor@@": 1215,
  "%": 1216,
  "uc@@": 1217,
  "Ok@@": 1218,
  "tur@@": 1219,
  "ris@@": 1220,
  "ome@@": 1221,
  "én": 1222,
  "cr@@": 1223,
  "ool": 1224,
  "resul@@": 1225,
  "sn@@": 1226,
  "son": 1227,
  "ton": 1228,
  "rit@@": 1229,
  "schien": 1230,
  "eigen@@": 1231,
  "theor@@": 1232,
  "vr@@": 1233,
  "gende": 1234,
  "experi@@": 1235,
  "pos@@": 1236,
  "kil@@": 1237,
  "ate": 1238,
  "gla@@": 1239,
  "model": 1240,
  "tot@@": 1241,
  "c": 1242,
  "cep@@": 1243,
  "cam@@": 1244,
  "De@@": 1245,
  "ming": 1246,
  "pers@@": 1247,
  "zelf@@": 1248,
  "bren@@": 1249,
  "off@@": 1250,
  "B": 1251,
  "ier": 1252,
  "beel@@": 1253,
  "é@@": 1254,
  "wan@@": 1255,
  "alle@@": 1256,
  "imp@@": 1257,
  "mb@@": 1258,
  "mot@@": 1259,
  "intel@@": 1260,
  "ms": 1261,
  "Fran@@": 1262,
  "oot": 1263,
  "kin@@": 1264,
  "computer": 1265,
  "por@@": 1266,
  "centr@@": 1267,
  "ruim@@": 1268,
  "out": 1269,
  "e-@@": 1270,
  "acti@@": 1271,
  "fl@@": 1272,
  "cor@@": 1273,
  "belan@@": 1274,
  "bur@@": 1275,
  "mee@@": 1276,
  "volu@@": 1277,
  "tek@@": 1278,
  "z": 1279,
  "onge@@": 1280,
  "wit@@": 1281,
  "mach@@": 1282,
  "15": 1283,
  "og@@": 1284,
  "40": 1285,
  "20@@": 1286,
  "zel@@": 1287,
  "pla@@": 1288,
  "Is": 1289,
  "veran@@": 1290,
  "ide@@": 1291,
  "ran@@": 1292,
  "archit@@": 1293,
  "indu@@": 1294,
  "Y@@": 1295,
  "studen@@": 1296,
  "mensel@@": 1297,
  "pi@@": 1298,
  "star@@": 1299,
  "era": 1300,
  "ch": 1301,
  "machine": 1302,
  "beh@@": 1303,
  "York": 1304,
  "ner": 1305,
  "ir": 1306,
  "Euro@@": 1307,
  "bro@@": 1308,
  "mat@@": 1309,
  "syste@@": 1310,
  "Mar@@": 1311,
  "top": 1312,
  "projec@@": 1313,
  "China": 1314,
  "thou@@": 1315,
  "000": 1316,
  "pati@@": 1317,
  "ry": 1318,
  "gh@@": 1319,
  "anti@@": 1320,
  "10@@": 1321,
  "aarom": 1322,
  "mic@@": 1323,
  "even@@": 1324,
  "prin@@": 1325,
  "lec@@": 1326,
  "Ar@@": 1327,
  "los@@": 1328,
  "No@@": 1329,
  "commun@@": 1330,
  "rest": 1331,
  "emot@@": 1332,
  "tes": 1333,
  "TE@@": 1334,
  "ning": 1335,
  "pr@@": 1336,
  "medi@@": 1337,
  "CA": 1338,
  "vie@@": 1339,
  "uni@@": 1340,
  "oto@@": 1341,
  "direc@@": 1342,
  "solu@@": 1343,
  "dent": 1344,
  "bac@@": 1345,
  "sion@@": 1346,
  "sor@@": 1347,
  "gre@@": 1348,
  "eft": 1349,
  "stru@@": 1350,
  "duc@@": 1351,
  "fic@@": 1352,
  "din@@": 1353,
  "spir@@": 1354,
  "tor": 1355,
  "ill@@": 1356,
  "pap@@": 1357,
  "cur@@": 1358,
  "ines": 1359,
  "inf@@": 1360,
  "lit@@": 1361,
  "jec@@": 1362,
  "presen@@": 1363,
  "lim@@": 1364,
  "my@@": 1365,
  "person@@": 1366,
  "cip@@": 1367,
  "pun@@": 1368,
  "sig@@": 1369,
  "prof@@": 1370,
  "rou@@": 1371,
  "cont@@": 1372,
  "design": 1373,
  "typ@@": 1374,
  "cl@@": 1375,
  "inst@@": 1376,
  "ullie": 1377,
  "video": 1378,
  "pop@@": 1379,
  "To@@": 1380,
  "contin@@": 1381,
  "nov@@": 1382,
  "genoe@@": 1383,
  "fi@@": 1384,
  "des": 1385,
  "ject": 1386,
  "Ri@@": 1387,
  "arti@@": 1388,
  "&#93;": 1389,
  "hy@@": 1390,
  "zul@@": 1391,
  "&#91;": 1392,
  "D": 1393,
  "miljo@@": 1394,
  "our@@": 1395,
  "disc@@": 1396,
  "komst": 1397,
  "past": 1398,
  "pp@@": 1399,
  "C": 1400,
  "O": 1401,
  "re": 1402,
  "ontwi@@": 1403,
  "ó@@": 1404,
  "Oh": 1405,
  "go": 1406,
  "dereen": 1407,
  "tic@@": 1408,
  "jo@@": 1409,
  "dat@@": 1410,
  "ici@@": 1411,
  "vand@@": 1412,
  "tit@@": 1413,
  "OK": 1414,
  "ots": 1415,
  "peri@@": 1416,
  "gu@@": 1417,
  "/": 1418,
  "ub@@": 1419,
  "pen@@": 1420,
  "ar": 1421,
  "car@@": 1422,
  "yp@@": 1423,
  "individu@@": 1424,
  "best": 1425,
  "stand@@": 1426,
  "o-@@": 1427,
  "tor@@": 1428,
  "technolog@@": 1429,
  "th": 1430,
  "elk@@": 1431,
  "wijl": 1432,
  "V": 1433,
  "energ@@": 1434,
  "half": 1435,
  "sub@@": 1436,
  "Chin@@": 1437,
  "Afrik@@": 1438,
  "fac@@": 1439,
  "pol@@": 1440,
  "zing": 1441,
  "trans@@": 1442,
  "grij@@": 1443,
  "ure": 1444,
  "mom@@": 1445,
  "ill": 1446,
  "gge@@": 1447,
  "form@@": 1448,
  "prot@@": 1449,
  "chts": 1450,
  "sne@@": 1451,
  "chan@@": 1452,
  "suc@@": 1453,
  "succ@@": 1454,
  "T": 1455,
  "è@@": 1456,
  "serv@@": 1457,
  "mul@@": 1458,
  "Th@@": 1459,
  "art": 1460,
  "I": 1461,
  "name": 1462,
  "U": 1463,
  "ator": 1464,
  "ps": 1465,
  "begrij@@": 1466,
  "lar@@": 1467,
  "ther@@": 1468,
  "ea@@": 1469,
  "ess@@": 1470,
  "ey": 1471,
  "wonder@@": 1472,
  "ay": 1473,
  "M": 1474,
  "oun@@": 1475,
  "sol@@": 1476,
  "start": 1477,
  "clu@@": 1478,
  "”": 1479,
  "G": 1480,
  "hard": 1481,
  "Inter@@": 1482,
  "Af@@": 1483,
  "Li@@": 1484,
  "bil@@": 1485,
  "ö@@": 1486,
  "acc@@": 1487,
  "anc@@": 1488,
  "desig@@": 1489,
  "’": 1490,
  "pub@@": 1491,
  "P": 1492,
  "erg@@": 1493,
  "hop@@": 1494,
  "sm@@": 1495,
  "zelfde": 1496,
  "ros@@": 1497,
  "loc@@": 1498,
  "The": 1499,
  "cap@@": 1500,
  "age": 1501,
  "…": 1502,
  "–": 1503,
  "v": 1504,
  "ity": 1505,
  "proc@@": 1506,
  "vide@@": 1507,
  "dre@@": 1508,
  "ges": 1509,
  "ad": 1510,
  "ore": 1511,
  "mater@@": 1512,
  "air": 1513,
  "line": 1514,
  "mes": 1515,
  "glob@@": 1516,
  "vir@@": 1517,
  "ce": 1518,
  "ragen": 1519,
  "kno@@": 1520,
  "schijn@@": 1521,
  "xt": 1522,
  "dol@@": 1523,
  "lot": 1524,
  "onom@@": 1525,
  "ater": 1526,
  "nd": 1527,
  "“": 1528,
  "arch@@": 1529,
  "ins": 1530,
  "H": 1531,
  "ly": 1532,
  "ic": 1533,
  "ouden": 1534,
  "ans@@": 1535,
  "tal": 1536,
  "ca@@": 1537,
  "E": 1538,
  "cent": 1539,
  "not@@": 1540,
  "ose": 1541,
  "ation": 1542,
  "do": 1543,
  "exp@@": 1544,
  "pres@@": 1545,
  "veer": 1546,
  "dy": 1547,
  "the": 1548,
  "ace": 1549,
  "N": 1550,
  "twe@@": 1551,
  "Ho@@": 1552,
  "ns": 1553,
  "uro@@": 1554,
  "twee@@": 1555,
  "all": 1556,
  "organ@@": 1557,
  "fo@@": 1558,
  "W": 1559,
  "beur@@": 1560,
  "F": 1561,
  "sur@@": 1562,
  "up@@": 1563,
  "sh": 1564,
  "ick": 1565,
  "ach": 1566,
  "enti@@": 1567,
  "ational": 1568,
  "K": 1569,
  "..": 1570,
  "resp@@": 1571,
  "lea@@": 1572,
  "pie@@": 1573,
  "gh": 1574,
  "dro@@": 1575,
  "ack": 1576,
  "ase": 1577,
  "geme@@": 1578,
  "up": 1579,
  "our": 1580,
  "grap@@": 1581,
  "be": 1582,
  "res": 1583,
  "cer@@": 1584,
  "het@@": 1585,
  "doe@@": 1586,
  "fu@@": 1587,
  "L": 1588,
  "ph@@": 1589,
  "fig@@": 1590,
  "cra@@": 1591,
  "nolog@@": 1592,
  "ward": 1593,
  "ow": 1594,
  "‘": 1595,
  "mber": 1596,
  "lon@@": 1597,
  "ids": 1598,
  "ss": 1599,
  "laat@@": 1600,
  "ice": 1601,
  "ü@@": 1602,
  "show": 1603,
  "&@@": 1604,
  "schijnlijk": 1605,
  "verh@@": 1606,
  "verschill@@": 1607,
  "its": 1608,
  "get": 1609,
  "iti@@": 1610,
  "ls": 1611,
  "ors": 1612,
  "indivi@@": 1613,
  "low": 1614,
  "ket": 1615,
  "face": 1616,
  "tting": 1617,
  "by": 1618,
  "ome": 1619,
  "don": 1620,
  "sci@@": 1621,
  "put": 1622,
  "ess": 1623,
  "set": 1624,
  "ics": 1625,
  "wn": 1626,
  "gebrui@@": 1627,
  "shi@@": 1628,
  "talk": 1629,
  "X@@": 1630,
  "Afri@@": 1631,
  "ld": 1632,
  "out@@": 1633,
  "begin@@": 1634,
  "dri@@": 1635,
  "been": 1636,
  "ves": 1637,
  "anim@@": 1638,
  "betek@@": 1639,
  "ities": 1640,
  "Q@@": 1641,
  "ary": 1642,
  "ago": 1643,
  "form": 1644,
  "R": 1645,
  "ence": 1646,
  "Wh@@": 1647,
  "ey@@": 1648,
  "cla@@": 1649,
  "dollars": 1650,
  "ty": 1651,
  "pret@@": 1652,
  "alk": 1653,
  "lob@@": 1654,
  "than": 1655,
  "busin@@": 1656,
  "parti@@": 1657,
  "right": 1658,
  "last": 1659,
  "time": 1660,
  "ings": 1661,
  "equ@@": 1662,
  "ple": 1663,
  "ance": 1664,
  "ther": 1665,
  "my": 1666,
  "connec@@": 1667,
  "sho@@": 1668,
  "kele": 1669,
  "wing": 1670,
  "ape": 1671,
  "à": 1672,
  "X": 1673,
  "$": 1674,
  "á@@": 1675,
  "J": 1676,
  "É@@": 1677,
  "ê@@": 1678,
  "—": 1679,
  "è": 1680,
  "Y": 1681,
  "°": 1682,
  "ó": 1683,
  "í@@": 1684,
  "Q": 1685,
  "Z": 1686,
  "½": 1687,
  "+": 1688,
  "ï": 1689,
  "♪": 1690,
  "ã@@": 1691,
  "q@@": 1692,
  "=": 1693,
  ")": 1694,
  "q": 1695,
  "²": 1696,
  "ç@@": 1697,
  "à@@": 1698,
  "#": 1699,
  "ñ@@": 1700,
  "¨": 1701,
  "@": 1702,
  "*": 1703,
  "ä@@": 1704,
  "ň@@": 1705,
  "´": 1706,
  "ò@@": 1707,
  "£": 1708,
  "º@@": 1709,
  "^": 1710,
  "ú": 1711,
  "`": 1712,
  "`@@": 1713,
  "ú@@": 1714,
  "î@@": 1715,
  "â@@": 1716,
  "ì@@": 1717,
  "​": 1718,
  "(": 1719,
  "Ó@@": 1720,
  "ā@@": 1721,
  "¾": 1722,
  "º": 1723,
  "™": 1724,
  "á": 1725,
  "ê": 1726,
  "˚": 1727,
  "å@@": 1728,
  "€": 1729
}