{
  "<EOS>": 0,
  "<GO>": 1,
  "<UNK>": 2,
  ".": 3,
  ",": 4,
  "de": 5,
  "een": 6,
  "het": 7,
  "en": 8,
  "van": 9,
  "is": 10,
  "dat": 11,
  "in": 12,
  "te": 13,
  "je": 14,
  "ik": 15,
  "die": 16,
  "we": 17,
  "zijn": 18,
  "op": 19,
  "niet": 20,
  "er": 21,
  "&quot;": 22,
  "ze": 23,
  "om": 24,
  "met": 25,
  "Ik": 26,
  "ver@@": 27,
  ":": 28,
  "ge@@": 29,
  "voor": 30,
  "als": 31,
  "k@@": 32,
  "Het": 33,
  "aan": 34,
  "?": 35,
  "wat": 36,
  "En": 37,
  "was": 38,
  "over": 39,
  "be@@": 40,
  "dit": 41,
  "naar": 42,
  "hebben": 43,
  "--": 44,
  "deze": 45,
  "&apos;": 46,
  "s@@": 47,
  "d@@": 48,
  "dan": 49,
  "maar": 50,
  "er@@": 51,
  "s": 52,
  "i@@": 53,
  "We": 54,
  "on@@": 55,
  "t@@": 56,
  "den": 57,
  "in@@": 58,
  "of": 59,
  "mensen": 60,
  "-@@": 61,
  "t": 62,
  "De": 63,
  "kunnen": 64,
  "door": 65,
  "re@@": 66,
  "op@@": 67,
  "mijn": 68,
  "st@@": 69,
  "uit": 70,
  "k": 71,
  "ten": 72,
  "en@@": 73,
  "g@@": 74,
  "Maar": 75,
  "ons": 76,
  "d": 77,
  "z@@": 78,
  "kan": 79,
  "Dit": 80,
  "zo": 81,
  "p@@": 82,
  "m@@": 83,
  "me": 84,
  "b@@": 85,
  "f@@": 86,
  "v@@": 87,
  "doen": 88,
  "ook": 89,
  "e@@": 90,
  "n@@": 91,
  "zien": 92,
  "el@@": 93,
  "uit@@": 94,
  "hij": 95,
  "Ze": 96,
  "u@@": 97,
  "al": 98,
  "eren": 99,
  "Dat": 100,
  "e": 101,
  "di@@": 102,
  "jaar": 103,
  "w@@": 104,
  "le@@": 105,
  "a": 106,
  "ie@@": 107,
  "bij": 108,
  "waar": 109,
  "zou": 110,
  "geen": 111,
  "gen": 112,
  "ken": 113,
  "de@@": 114,
  "meer": 115,
  "S@@": 116,
  "gaan": 117,
  "an@@": 118,
  "voor@@": 119,
  "hoe": 120,
  "nog": 121,
  "a@@": 122,
  "o@@": 123,
  "sch@@": 124,
  "heeft": 125,
  "ing": 126,
  "wereld": 127,
  "ie": 128,
  "veel": 129,
  "hun": 130,
  "worden": 131,
  "hier": 132,
  "Dus": 133,
  "g": 134,
  "B@@": 135,
  "onze": 136,
  "aan@@": 137,
  "r@@": 138,
  "tot": 139,
  "nu": 140,
  "al@@": 141,
  "maken": 142,
  "iets": 143,
  "Je": 144,
  "atie": 145,
  "dingen": 146,
  "Als": 147,
  "leven": 148,
  "at@@": 149,
  "ar@@": 150,
  "heb": 151,
  "andere": 152,
  "te@@": 153,
  "ingen": 154,
  "l@@": 155,
  "p": 156,
  "om@@": 157,
  "it@@": 158,
  "over@@": 159,
  "kt": 160,
  "jullie": 161,
  "sp@@": 162,
  "♫": 163,
  "M@@": 164,
  "st": 165,
  "we@@": 166,
  "h@@": 167,
  "heid": 168,
  "wel": 169,
  "el": 170,
  "ri@@": 171,
  "A@@": 172,
  "T@@": 173,
  "la@@": 174,
  "or@@": 175,
  "Hij": 176,
  "moeten": 177,
  "i": 178,
  "echt": 179,
  "c@@": 180,
  "-": 181,
  "ch@@": 182,
  "ma@@": 183,
  "onder@@": 184,
  "had": 185,
  "zal": 186,
  "W@@": 187,
  "H@@": 188,
  "gaat": 189,
  "heel": 190,
  "dus": 191,
  "N@@": 192,
  "omdat": 193,
  "komen": 194,
  "end": 195,
  "ende": 196,
  "K@@": 197,
  "af@@": 198,
  "P@@": 199,
  "der@@": 200,
  "V@@": 201,
  "Wat": 202,
  "li@@": 203,
  "cht": 204,
  "moet": 205,
  "Er": 206,
  "In": 207,
  "E@@": 208,
  "waar@@": 209,
  "wil": 210,
  "ont@@": 211,
  "gel@@": 212,
  "me@@": 213,
  "D@@": 214,
  "ben": 215,
  "and": 216,
  "G@@": 217,
  "m": 218,
  "zoals": 219,
  "se": 220,
  "twee": 221,
  "o": 222,
  "wordt": 223,
  "zich": 224,
  "tijd": 225,
  "ste": 226,
  "één": 227,
  "goed": 228,
  "Een": 229,
  "ur@@": 230,
  "sen": 231,
  "zei": 232,
  "pen": 233,
  "ste@@": 234,
  "ne@@": 235,
  "y@@": 236,
  "u": 237,
  "ter@@": 238,
  "waren": 239,
  "ol@@": 240,
  "daar": 241,
  "tie": 242,
  "il@@": 243,
  "ra@@": 244,
  "ster@@": 245,
  "an": 246,
  "ale": 247,
  "eerste": 248,
  "ge": 249,
  "laten": 250,
  "R@@": 251,
  "aal": 252,
  "us": 253,
  "kken": 254,
  "denk": 255,
  "C@@": 256,
  "ro@@": 257,
  "alleen": 258,
  "gen@@": 259,
  "ging": 260,
  "alle": 261,
  "haar": 262,
  "L@@": 263,
  "men": 264,
  "manier": 265,
  "aa@@": 266,
  "oor@@": 267,
  "werd": 268,
  "oo@@": 269,
  "j@@": 270,
  "weet": 271,
  "denken": 272,
  "ac@@": 273,
  "at": 274,
  "soort": 275,
  "ele": 276,
  "chten": 277,
  "zeggen": 278,
  "he@@": 279,
  "l": 280,
  "mij": 281,
  "es": 282,
  "eld": 283,
  "vol@@": 284,
  "f": 285,
  "ou@@": 286,
  "toe@@": 287,
  "is@@": 288,
  "ding": 289,
  "ven": 290,
  "O@@": 291,
  "os@@": 292,
  "ing@@": 293,
  "am@@": 294,
  "grote": 295,
  "hele": 296,
  "erg": 297,
  "komt": 298,
  "ij@@": 299,
  "allemaal": 300,
  "J@@": 301,
  "da@@": 302,
  "ul@@": 303,
  "ers": 304,
  "...": 305,
  "ic@@": 306,
  "toen": 307,
  "na": 308,
  "sche": 309,
  "geven": 310,
  "zen": 311,
  "sten": 312,
  "kinderen": 313,
  "men@@": 314,
  "ger@@": 315,
  "n": 316,
  "mee": 317,
  "werk": 318,
  "et": 319,
  "iteit": 320,
  "aar@@": 321,
  "wa@@": 322,
  "Z@@": 323,
  "ze@@": 324,
  "ru@@": 325,
  "tr@@": 326,
  "ens": 327,
  "gt": 328,
  "sie": 329,
  "cht@@": 330,
  "den@@": 331,
  "nieuwe": 332,
  "se@@": 333,
  "wij@@": 334,
  "hem": 335,
  "1@@": 336,
  "do@@": 337,
  "bel@@": 338,
  "un@@": 339,
  "ische": 340,
  "I@@": 341,
  "ap@@": 342,
  "ter": 343,
  "daar@@": 344,
  "werken": 345,
  "af": 346,
  "si@@": 347,
  "weten": 348,
  "str@@": 349,
  "len": 350,
  "ot@@": 351,
  "es@@": 352,
  "oe@@": 353,
  "der": 354,
  "lo@@": 355,
  "wer@@": 356,
  "zelf": 357,
  "zouden": 358,
  "zo@@": 359,
  "tel@@": 360,
  "staat": 361,
  "dag": 362,
  "vo@@": 363,
  "ur": 364,
  "ha@@": 365,
  "zi@@": 366,
  "vinden": 367,
  "nodig": 368,
  "aten": 369,
  "eens": 370,
  "ziet": 371,
  "id": 372,
  "stu@@": 373,
  "isch": 374,
  "ga": 375,
  "ks": 376,
  "ti@@": 377,
  "deel": 378,
  "gr@@": 379,
  "alles": 380,
  "pa@@": 381,
  "eerd": 382,
  "lu@@": 383,
  "to@@": 384,
  "idee": 385,
  "no@@": 386,
  "willen": 387,
  "ft": 388,
  "hadden": 389,
  "zullen": 390,
  "lijk": 391,
  "erd": 392,
  "krijgen": 393,
  "kunt": 394,
  "kijken": 395,
  "iemand": 396,
  "drie": 397,
  "per": 398,
  "land": 399,
  "want": 400,
  "Hier": 401,
  "gewoon": 402,
  "kleine": 403,
  "dig": 404,
  "bi@@": 405,
  "Deze": 406,
  "hebt": 407,
  "br@@": 408,
  "le": 409,
  "elen": 410,
  "ten@@": 411,
  "gebruiken": 412,
  "na@@": 413,
  "on": 414,
  "ies": 415,
  "tu@@": 416,
  "baar": 417,
  "her@@": 418,
  "wij": 419,
  "ni@@": 420,
  "ker@@": 421,
  "bo@@": 422,
  "weg": 423,
  "F@@": 424,
  "ert": 425,
  "rij@@": 426,
  "ongeveer": 427,
  "TED": 428,
  "y": 429,
  "im@@": 430,
  "man": 431,
  "ken@@": 432,
  "con@@": 433,
  "dige": 434,
  "zeer": 435,
  "gi@@": 436,
  "nen": 437,
  "2@@": 438,
  "elkaar": 439,
  "geb@@": 440,
  "ke": 441,
  "paar": 442,
  "ve@@": 443,
  "net": 444,
  "ger": 445,
  "misschien": 446,
  "vi@@": 447,
  "tegen": 448,
  "onder": 449,
  "!": 450,
  "tussen": 451,
  "zonder": 452,
  "bij@@": 453,
  "kon": 454,
  "iek": 455,
  "zelfs": 456,
  "hoe@@": 457,
  "Hoe": 458,
  "geleden": 459,
  "toe": 460,
  "verk@@": 461,
  "hu@@": 462,
  "zij": 463,
  "au@@": 464,
  "bu@@": 465,
  "ei@@": 466,
  "vraag": 467,
  "eel": 468,
  "Nu": 469,
  "sl@@": 470,
  "inter@@": 471,
  "keer": 472,
  "the@@": 473,
  "ig@@": 474,
  "ijke": 475,
  "verhaal": 476,
  "van@@": 477,
  "kwam": 478,
  "ig": 479,
  "mi@@": 480,
  "doet": 481,
  "verschillende": 482,
  "dt": 483,
  "nooit": 484,
  "enen": 485,
  ";": 486,
  "du@@": 487,
  "tre@@": 488,
  "plaats": 489,
  "houden": 490,
  "ab@@": 491,
  "terug": 492,
  "door@@": 493,
  "kel@@": 494,
  "anders": 495,
  "ker": 496,
  "wel@@": 497,
  "sel@@": 498,
  "oon": 499,
  "del@@": 500,
  "elke": 501,
  "probleem": 502,
  "ke@@": 503,
  "mer@@": 504,
  "staan": 505,
  "em@@": 506,
  "delen": 507,
  "oren": 508,
  "ta@@": 509,
  "nemen": 510,
  "ed": 511,
  "dr@@": 512,
  "zit": 513,
  "water": 514,
  "th@@": 515,
  "hen": 516,
  "jaren": 517,
  "altijd": 518,
  "eigenlijk": 519,
  "zie": 520,
  "uur": 521,
  "erde": 522,
  "waarom": 523,
  "aar": 524,
  "min@@": 525,
  "dacht": 526,
  "ko@@": 527,
  "and@@": 528,
  "technologie": 529,
  "moe@@": 530,
  "aties": 531,
  "et@@": 532,
  "werkt": 533,
  "kan@@": 534,
  "steeds": 535,
  "deren": 536,
  "foto": 537,
  "laat": 538,
  "ver": 539,
  "wanneer": 540,
  "kant": 541,
  "eigen": 542,
  "gemaakt": 543,
  "maakt": 544,
  "even": 545,
  "stel@@": 546,
  "leren": 547,
  "za@@": 548,
  "ec@@": 549,
  "gev@@": 550,
  "ond": 551,
  "pra@@": 552,
  "win@@": 553,
  "ber@@": 554,
  "hi@@": 555,
  "stellen": 556,
  "jes": 557,
  "kte": 558,
  "h": 559,
  "miljoen": 560,
  "ga@@": 561,
  "bl@@": 562,
  "per@@": 563,
  "bent": 564,
  "wi@@": 565,
  "5": 566,
  "gra@@": 567,
  "hier@@": 568,
  "iedereen": 569,
  "geld": 570,
  "ontde@@": 571,
  "x@@": 572,
  "Al@@": 573,
  "weer": 574,
  "onden": 575,
  "ent": 576,
  "ij": 577,
  "draa@@": 578,
  "zegt": 579,
  "Toen": 580,
  "samen@@": 581,
  "vragen": 582,
  "ho@@": 583,
  "vor@@": 584,
  "as@@": 585,
  "lie@@": 586,
  "mu@@": 587,
  "ieke": 588,
  "alen": 589,
  "ree@@": 590,
  "ings@@": 591,
  "produc@@": 592,
  "lijke": 593,
  "it": 594,
  "eerde": 595,
  "vertellen": 596,
  "lang": 597,
  "ds": 598,
  "ex@@": 599,
  "ts": 600,
  "procent": 601,
  "Mijn": 602,
  "brengen": 603,
  "belangrijk": 604,
  "beetje": 605,
  "lij@@": 606,
  "ep@@": 607,
  "mo@@": 608,
  "ad@@": 609,
  "3@@": 610,
  "kun@@": 611,
  "oc@@": 612,
  "sla@@": 613,
  "aantal": 614,
  "dollar": 615,
  "systeem": 616,
  "gd": 617,
  "loo@@": 618,
  "bare": 619,
  "wilde": 620,
  "pl@@": 621,
  "ige": 622,
  "laatste": 623,
  "gew@@": 624,
  "dig@@": 625,
  "kle@@": 626,
  "hoop": 627,
  "voe@@": 628,
  "binnen": 629,
  "mogelijk": 630,
  "goede": 631,
  "vier": 632,
  "po@@": 633,
  "zitten": 634,
  "ief": 635,
  "beter": 636,
  "ant": 637,
  "Talk": 638,
  "10": 639,
  "licht": 640,
  "elk": 641,
  "vandaag": 642,
  "zodat": 643,
  "ijk": 644,
  "gingen": 645,
  "verander@@": 646,
  "Die": 647,
  "versch@@": 648,
  "Transcript": 649,
  "Subtitles": 650,
  "ooit": 651,
  "ik@@": 652,
  "Op": 653,
  "landen": 654,
  "punt": 655,
  "em": 656,
  "pt": 657,
  "niets": 658,
  "volgende": 659,
  "gebeurt": 660,
  "kk@@": 661,
  "moment": 662,
  "groot": 663,
  "raa@@": 664,
  "lin@@": 665,
  "meest": 666,
  "ss@@": 667,
  "han@@": 668,
  "sc@@": 669,
  "genoeg": 670,
  "hel@@": 671,
  "id@@": 672,
  "4@@": 673,
  "een@@": 674,
  "ron@@": 675,
  "oor": 676,
  "plan@@": 677,
  "ander": 678,
  "Afrika": 679,
  "tje": 680,
  "oom": 681,
  "gedaan": 682,
  "ï@@": 683,
  "probe@@": 684,
  "open": 685,
  "teren": 686,
  "tra@@": 687,
  "beginnen": 688,
  "veranderen": 689,
  "ach@@": 690,
  "vers@@": 691,
  "begrijpen": 692,
  "ieve": 693,
  "elt": 694,
  "ë@@": 695,
  ".@@": 696,
  "sta@@": 697,
  "Waarom": 698,
  "energie": 699,
  "um": 700,
  "ders": 701,
  "ser@@": 702,
  "deed": 703,
  "50": 704,
  "proberen": 705,
  "delijk": 706,
  "2": 707,
  "tie@@": 708,
  "ë": 709,
  "bouwen": 710,
  "heen": 711,
  "konden": 712,
  "begon": 713,
  "gezien": 714,
  "achter@@": 715,
  "tal@@": 716,
  "geeft": 717,
  "problemen": 718,
  "rec@@": 719,
  "betekent": 720,
  "samen": 721,
  "of@@": 722,
  "ff@@": 723,
  "elijk": 724,
  "eten": 725,
  "uren": 726,
  "chte": 727,
  "schap": 728,
  "kten": 729,
  "organis@@": 730,
  "toch": 731,
  "slechts": 732,
  "20": 733,
  "ien": 734,
  "zetten": 735,
  "3": 736,
  "minder": 737,
  "ere": 738,
  "mis@@": 739,
  "ssen": 740,
  "natuurlijk": 741,
  "Dan": 742,
  "land@@": 743,
  "huis": 744,
  "ontwikkel@@": 745,
  "gens": 746,
  "us@@": 747,
  "cen@@": 748,
  "kra@@": 749,
  "har@@": 750,
  "enkele": 751,
  "eer@@": 752,
  "helemaal": 753,
  "dezelfde": 754,
  "gele@@": 755,
  "ijkheid": 756,
  "snel": 757,
  "ties": 758,
  "werden": 759,
  "Zo": 760,
  "oud": 761,
  "su@@": 762,
  "ruimte": 763,
  "aren": 764,
  "vrij@@": 765,
  "kennen": 766,
  "5@@": 767,
  "On@@": 768,
  "kijkt": 769,
  "zie@@": 770,
  "ir@@": 771,
  "Ver@@": 772,
  "kracht": 773,
  "lijkt": 774,
  "dru@@": 775,
  "par@@": 776,
  "lan@@": 777,
  "ban@@": 778,
  "verder": 779,
  "19@@": 780,
  "ideeën": 781,
  "wie": 782,
  "rel@@": 783,
  "war@@": 784,
  "dere": 785,
  "ist@@": 786,
  "ou": 787,
  "besch@@": 788,
  "nie@@": 789,
  "beelden": 790,
  "rond": 791,
  "zag": 792,
  "zeker": 793,
  "pe@@": 794,
  "les": 795,
  "menselijke": 796,
  "spe@@": 797,
  "kop@@": 798,
  "U@@": 799,
  "zaken": 800,
  "deel@@": 801,
  "waarin": 802,
  "bre@@": 803,
  "r": 804,
  "snel@@": 805,
  "moest": 806,
  "king": 807,
  "praten": 808,
  "boek": 809,
  "vorm": 810,
  "waarschijnlijk": 811,
  "bew@@": 812,
  "Ge@@": 813,
  "toekomst": 814,
  "gesch@@": 815,
  "man@@": 816,
  "waarop": 817,
  "persoon": 818,
  "terwijl": 819,
  "gang": 820,
  "meeste": 821,
  "gebruikt": 822,
  "sk@@": 823,
  "tweede": 824,
  "tro@@": 825,
  "bla@@": 826,
  "hetzelfde": 827,
  "Want": 828,
  "Daar": 829,
  "kind": 830,
  "all@@": 831,
  "Omdat": 832,
  "ijn": 833,
  "stad": 834,
  "for@@": 835,
  "beeld": 836,
  "pro@@": 837,
  "werk@@": 838,
  "enige": 839,
  "ef@@": 840,
  "school": 841,
  "Ja": 842,
  "7": 843,
  "tion@@": 844,
  "oon@@": 845,
  "md": 846,
  "aarde": 847,
  "En@@": 848,
  "ek": 849,
  "voorbeeld": 850,
  "app@@": 851,
  "omen": 852,
  "lei@@": 853,
  "pre@@": 854,
  "jon@@": 855,
  "sle@@": 856,
  "vis@@": 857,
  "4": 858,
  "beste": 859,
  "volgens": 860,
  "ged@@": 861,
  "6@@": 862,
  "va@@": 863,
  "net@@": 864,
  "grootste": 865,
  "ali@@": 866,
  "ba@@": 867,
  "hand": 868,
  "ene": 869,
  "vijf": 870,
  "uur@@": 871,
  "vrouw": 872,
  "ple@@": 873,
  "ment": 874,
  ".000": 875,
  "sa@@": 876,
  "informatie": 877,
  "dieren": 878,
  "hand@@": 879,
  "stan@@": 880,
  "menten": 881,
  "7@@": 882,
  "ouwen": 883,
  "val@@": 884,
  "ine": 885,
  "vaak": 886,
  "terug@@": 887,
  "fe@@": 888,
  "zicht": 889,
  "elijke": 890,
  "vele": 891,
  "pas@@": 892,
  "tjes": 893,
  "klein": 894,
  "oel": 895,
  "alis@@": 896,
  "vel@@": 897,
  "stand": 898,
  "nu@@": 899,
  "ving": 900,
  "planeet": 901,
  "eerst": 902,
  "ide": 903,
  "India": 904,
  "ein@@": 905,
  "bli@@": 906,
  "koo@@": 907,
  "soorten": 908,
  "buiten": 909,
  "auto": 910,
  "ervan": 911,
  "doe": 912,
  "wis@@": 913,
  "miljard": 914,
  "1": 915,
  "echte": 916,
  "ieën": 917,
  "ed@@": 918,
  "bijna": 919,
  "ood": 920,
  "tische": 921,
  "stuk": 922,
  "sec@@": 923,
  "graag": 924,
  "tegen@@": 925,
  "meter": 926,
  "achter": 927,
  "mor@@": 928,
  "polit@@": 929,
  "tief": 930,
  "geïn@@": 931,
  "An@@": 932,
  "plaatsen": 933,
  "later": 934,
  "kor@@": 935,
  "helpen": 936,
  "wetenschap": 937,
  "zes": 938,
  "bed@@": 939,
  "aak": 940,
  "ne": 941,
  "w": 942,
  "spelen": 943,
  "wor@@": 944,
  "ven@@": 945,
  "plaat@@": 946,
  "eenvou@@": 947,
  "Dank": 948,
  "gener@@": 949,
  "je@@": 950,
  "blijven": 951,
  "noemen": 952,
  "ci@@": 953,
  "tijd@@": 954,
  "as": 955,
  "geweest": 956,
  "ut": 957,
  "gebruik": 958,
  "mil@@": 959,
  "plek": 960,
  "ijn@@": 961,
  "ben@@": 962,
  "vrouwen": 963,
  "verb@@": 964,
  "middel@@": 965,
  "bru@@": 966,
  "sti@@": 967,
  "kl@@": 968,
  "gan@@": 969,
  "kelijk": 970,
  "gene@@": 971,
  "begin": 972,
  "seerd": 973,
  "kam@@": 974,
  "data": 975,
  "ma": 976,
  "zoveel": 977,
  "kla@@": 978,
  "mp@@": 979,
  "vond": 980,
  "groep": 981,
  "maakte": 982,
  "fil@@": 983,
  "reden": 984,
  "dagen": 985,
  "pu@@": 986,
  "ag@@": 987,
  "boven": 988,
  "or": 989,
  "uc@@": 990,
  "stre@@": 991,
  "els": 992,
  "x": 993,
  "ati@@": 994,
  "ële": 995,
  "iden": 996,
  "sel": 997,
  "zu@@": 998,
  "gebied": 999,
  "8": 1000,
  "vormen": 1001,
  "vol": 1002,
  "tten": 1003,
  "zichzelf": 1004,
  "9": 1005,
  "halen": 1006,
  "oude": 1007,
  "t-@@": 1008,
  "kwamen": 1009,
  "b": 1010,
  "moeilijk": 1011,
  "kli@@": 1012,
  "moeder": 1013,
  "lev@@": 1014,
  "sin@@": 1015,
  "ong": 1016,
  "Wij": 1017,
  "project": 1018,
  "gelijk@@": 1019,
  "pat@@": 1020,
  "zon@@": 1021,
  "St@@": 1022,
  "geval": 1023,
  "lichaam": 1024,
  "God": 1025,
  "zeiden": 1026,
  "eert": 1027,
  "spr@@": 1028,
  "duur@@": 1029,
  "gebeuren": 1030,
  "werkelijk": 1031,
  "zoeken": 1032,
  "erden": 1033,
  "del": 1034,
  "duidelijk": 1035,
  "30": 1036,
  "sh@@": 1037,
  "Voor": 1038,
  "ieu@@": 1039,
  "krijgt": 1040,
  "ust": 1041,
  "kom@@": 1042,
  "dan@@": 1043,
  "kers": 1044,
  "chter": 1045,
  "zorgen": 1046,
  "mar@@": 1047,
  "Met": 1048,
  "ari@@": 1049,
  "lopen": 1050,
  "bedrijf": 1051,
  "buiten@@": 1052,
  "vind": 1053,
  "6": 1054,
  "il": 1055,
  "stor@@": 1056,
  "diep@@": 1057,
  "ster": 1058,
  "gro@@": 1059,
  "ob@@": 1060,
  "200@@": 1061,
  "verwa@@": 1062,
  "eer": 1063,
  "groot@@": 1064,
  "binnen@@": 1065,
  "tri@@": 1066,
  "verandering": 1067,
  "kijk": 1068,
  "genomen": 1069,
  "precies": 1070,
  "ren": 1071,
  "Laten": 1072,
  "hou@@": 1073,
  "one": 1074,
  "beg@@": 1075,
  "geschiedenis": 1076,
  "bijvoorbeeld": 1077,
  "stond": 1078,
  "ist": 1079,
  "zeg": 1080,
  "stra@@": 1081,
  "gezond@@": 1082,
  "jij": 1083,
  "stij@@": 1084,
  "graf@@": 1085,
  "ia": 1086,
  "bedoel": 1087,
  "dra@@": 1088,
  "heet": 1089,
  "kreeg": 1090,
  "hoor@@": 1091,
  "gels": 1092,
  "onderzoek": 1093,
  "Of": 1094,
  "actie": 1095,
  "chtig": 1096,
  "scha@@": 1097,
  "meest@@": 1098,
  "verhalen": 1099,
  "feite": 1100,
  "stof": 1101,
  "wetenschapp@@": 1102,
  "antwoord": 1103,
  "ouw@@": 1104,
  "Nee": 1105,
  "100": 1106,
  "Zij": 1107,
  "grond": 1108,
  "ogen": 1109,
  "kkel@@": 1110,
  "film": 1111,
  "simp@@": 1112,
  "vroeg": 1113,
  "hoog@@": 1114,
  "leef@@": 1115,
  "maal": 1116,
  "c": 1117,
  "mon@@": 1118,
  "j": 1119,
  "boo@@": 1120,
  "mid@@": 1121,
  "ijk@@": 1122,
  "Som@@": 1123,
  "contro@@": 1124,
  "spre@@": 1125,
  "vri@@": 1126,
  "vaar@@": 1127,
  "natuur": 1128,
  "nieuw": 1129,
  "geloof": 1130,
  "ren@@": 1131,
  "roe@@": 1132,
  "derde": 1133,
  "groe@@": 1134,
  "delijke": 1135,
  "vre@@": 1136,
  "hoofd": 1137,
  "sommige": 1138,
  "stelling": 1139,
  "In@@": 1140,
  "est@@": 1141,
  "ost": 1142,
  "bestu@@": 1143,
  "welke": 1144,
  "dden": 1145,
  "izen": 1146,
  "begonnen": 1147,
  "bor@@": 1148,
  "natuur@@": 1149,
  "open@@": 1150,
  "tijdens": 1151,
  "denkt": 1152,
  "aanse": 1153,
  "muziek": 1154,
  "niemand": 1155,
  "blij@@": 1156,
  "telef@@": 1157,
  "kans": 1158,
  "oog": 1159,
  "vroe@@": 1160,
  "tonen": 1161,
  "bestaat": 1162,
  "go@@": 1163,
  "lic@@": 1164,
  "gelijk": 1165,
  "Mensen": 1166,
  "dachten": 1167,
  "leggen": 1168,
  "Amerika": 1169,
  "genen": 1170,
  "gde": 1171,
  "geluk": 1172,
  "Niet": 1173,
  "Om": 1174,
  "sch": 1175,
  "é@@": 1176,
  "digen": 1177,
  "ire": 1178,
  "hersenen": 1179,
  "keu@@": 1180,
  "Be@@": 1181,
  "sociale": 1182,
  ",@@": 1183,
  "eling": 1184,
  "zin": 1185,
  "appen": 1186,
  "creëren": 1187,
  "zor@@": 1188,
  "minuten": 1189,
  "anderen": 1190,
  "gel": 1191,
  "meis@@": 1192,
  "proces": 1193,
  "manieren": 1194,
  "bere@@": 1195,
  "deden": 1196,
  "kunde": 1197,
  "ica": 1198,
  "ler": 1199,
  "A": 1200,
  "bewe@@": 1201,
  "ja": 1202,
  "steden": 1203,
  "New": 1204,
  "Ma@@": 1205,
  "kel": 1206,
  "9@@": 1207,
  "gelij@@": 1208,
  "water@@": 1209,
  "tij@@": 1210,
  "woorden": 1211,
  "%": 1212,
  "elde": 1213,
  "oppervla@@": 1214,
  "eerder": 1215,
  "ood@@": 1216,
  "bouw@@": 1217,
  "gemeenschap": 1218,
  "lucht": 1219,
  "ters": 1220,
  "tte": 1221,
  "spel@@": 1222,
  "reven": 1223,
  "anen": 1224,
  "kende": 1225,
  "resul@@": 1226,
  "sn@@": 1227,
  "maanden": 1228,
  "kwe@@": 1229,
  "woord": 1230,
  "naam": 1231,
  "vanuit": 1232,
  "son": 1233,
  "aat": 1234,
  "opnieuw": 1235,
  "ën": 1236,
  "ijnen": 1237,
  "eigen@@": 1238,
  "interessant": 1239,
  "gevo@@": 1240,
  "pri@@": 1241,
  "gebruik@@": 1242,
  "mati@@": 1243,
  "markt": 1244,
  "gende": 1245,
  "druk": 1246,
  "kun": 1247,
  "gebeurde": 1248,
  "ep": 1249,
  "wist": 1250,
  "chtige": 1251,
  "ade@@": 1252,
  "uiteindelijk": 1253,
  "uw": 1254,
  "voedsel": 1255,
  "herin@@": 1256,
  "kelijke": 1257,
  "ën@@": 1258,
  "mannen": 1259,
  "ans": 1260,
  "wil@@": 1261,
  "ouders": 1262,
  "brein": 1263,
  "gla@@": 1264,
  "zaa@@": 1265,
  "onen": 1266,
  "volgen": 1267,
  "bloe@@": 1268,
  "mens": 1269,
  "Misschien": 1270,
  "model": 1271,
  "tot@@": 1272,
  "Ne@@": 1273,
  "Waar": 1274,
  "cellen": 1275,
  "Nou": 1276,
  "enkel": 1277,
  "scher@@": 1278,
  "De@@": 1279,
  "structuur": 1280,
  "oplos@@": 1281,
  "heids@@": 1282,
  "ming": 1283,
  "tig": 1284,
  "let@@": 1285,
  "stel": 1286,
  "Zoals": 1287,
  "uitge@@": 1288,
  "voort@@": 1289,
  "dood": 1290,
  "zelf@@": 1291,
  "behand@@": 1292,
  "daa@@": 1293,
  "vrij": 1294,
  "veili@@": 1295,
  "ald": 1296,
  "econom@@": 1297,
  "honder@@": 1298,
  "gebouw": 1299,
  "rom@@": 1300,
  "heden": 1301,
  "gere@@": 1302,
  "levens@@": 1303,
  "onderzoe@@": 1304,
  "ef": 1305,
  "vooral": 1306,
  "overal": 1307,
  "fantast@@": 1308,
  "geweldig": 1309,
  "zin@@": 1310,
  "doel": 1311,
  "bescher@@": 1312,
  "verschil": 1313,
  "viteit": 1314,
  "talen": 1315,
  "zat": 1316,
  "belangrijkste": 1317,
  "gevoel": 1318,
  "B": 1319,
  "spec@@": 1320,
  "schappen": 1321,
  "beel@@": 1322,
  "sten@@": 1323,
  "ier": 1324,
  "span@@": 1325,
  "vindt": 1326,
  "besli@@": 1327,
  "olen": 1328,
  "verspre@@": 1329,
  "alle@@": 1330,
  "wan@@": 1331,
  "soms": 1332,
  "met@@": 1333,
  "ve": 1334,
  "enorme": 1335,
  "Kijk": 1336,
  "spreken": 1337,
  "sli@@": 1338,
  "vloe@@": 1339,
  "kie@@": 1340,
  "Amerikaanse": 1341,
  "universum": 1342,
  "mb@@": 1343,
  "Oké": 1344,
  "spro@@": 1345,
  "ind": 1346,
  "Daar@@": 1347,
  "kaart": 1348,
  "ijf@@": 1349,
  "bepaalde": 1350,
  "Fran@@": 1351,
  "kunst": 1352,
  "vla@@": 1353,
  "Wanneer": 1354,
  "verbin@@": 1355,
  "oot": 1356,
  "verl@@": 1357,
  "lange": 1358,
  "gers": 1359,
  "qu@@": 1360,
  "via": 1361,
  "mde": 1362,
  "eg@@": 1363,
  "tuigen": 1364,
  "bet@@": 1365,
  "gheid": 1366,
  "strij@@": 1367,
  "opge@@": 1368,
  "erv@@": 1369,
  "programma": 1370,
  "av@@": 1371,
  "oog@@": 1372,
  "ble@@": 1373,
  "taal": 1374,
  "vallen": 1375,
  "kin@@": 1376,
  "eu@@": 1377,
  "computer": 1378,
  "horen": 1379,
  "ervaring": 1380,
  "appar@@": 1381,
  "vlieg@@": 1382,
  "nieuws": 1383,
  "leuk": 1384,
  "tw@@": 1385,
  "El@@": 1386,
  "gez@@": 1387,
  "0.000": 1388,
  "Eén": 1389,
  "len@@": 1390,
  "fys@@": 1391,
  "por@@": 1392,
  "mm@@": 1393,
  "krijg": 1394,
  "ting": 1395,
  "begint": 1396,
  "mooie": 1397,
  "ruim@@": 1398,
  "mooi": 1399,
  "bes@@": 1400,
  "alsof": 1401,
  "verzam@@": 1402,
  "out": 1403,
  "spel": 1404,
  "kere": 1405,
  "acti@@": 1406,
  "publiek": 1407,
  "e-@@": 1408,
  "boven@@": 1409,
  "trekken": 1410,
  "entie": 1411,
  "fl@@": 1412,
  "oorlog": 1413,
  "acht": 1414,
  "cor@@": 1415,
  "kregen": 1416,
  "schrijven": 1417,
  "bur@@": 1418,
  "mee@@": 1419,
  "volledig": 1420,
  "00": 1421,
  "maak": 1422,
  "makkelijk": 1423,
  "kje": 1424,
  "klein@@": 1425,
  "stop@@": 1426,
  "neemt": 1427,
  "don@@": 1428,
  "tek@@": 1429,
  "moesten": 1430,
  "z": 1431,
  "onge@@": 1432,
  "basis": 1433,
  "og@@": 1434,
  "internet": 1435,
  "eeuw": 1436,
  "val": 1437,
  "15": 1438,
  "ang@@": 1439,
  "waarvan": 1440,
  "wit@@": 1441,
  "taf@@": 1442,
  "gegevens": 1443,
  "ffen": 1444,
  "bezig": 1445,
  "posit@@": 1446,
  "vader": 1447,
  "oten": 1448,
  "dien@@": 1449,
  "40": 1450,
  "zel@@": 1451,
  "20@@": 1452,
  "aange@@": 1453,
  "bestaan": 1454,
  "berei@@": 1455,
  "halve": 1456,
  "bedrijven": 1457,
  "weg@@": 1458,
  "eruit": 1459,
  "vul@@": 1460,
  "ide@@": 1461,
  "pla@@": 1462,
  "einde": 1463,
  "zoe@@": 1464,
  "Is": 1465,
  "ran@@": 1466,
  "zet": 1467,
  "func@@": 1468,
  "gend": 1469,
  "tech@@": 1470,
  "afhan@@": 1471,
  "ligt": 1472,
  "Ch@@": 1473,
  "aag": 1474,
  "kr@@": 1475,
  "Ste@@": 1476,
  "brand@@": 1477,
  "Y@@": 1478,
  "telijk": 1479,
  "pi@@": 1480,
  "leden": 1481,
  "trum": 1482,
  "nam": 1483,
  "star@@": 1484,
  "beweging": 1485,
  "persoon@@": 1486,
  "veroor@@": 1487,
  "ele@@": 1488,
  "gevonden": 1489,
  "boeken": 1490,
  "kopen": 1491,
  "machine": 1492,
  "ch": 1493,
  "juiste": 1494,
  "ak@@": 1495,
  "goed@@": 1496,
  "ju@@": 1497,
  "ool": 1498,
  "jou": 1499,
  "beh@@": 1500,
  "uiten": 1501,
  "weer@@": 1502,
  "elektr@@": 1503,
  "Verenigde": 1504,
  "ner": 1505,
  "hoeveel": 1506,
  "ard": 1507,
  "duizenden": 1508,
  "ir": 1509,
  "hulp": 1510,
  "York": 1511,
  "8@@": 1512,
  "uitda@@": 1513,
  "Nat@@": 1514,
  "nogal": 1515,
  "bro@@": 1516,
  "liet": 1517,
  "mmen": 1518,
  "lezen": 1519,
  "mat@@": 1520,
  "0@@": 1521,
  "aard": 1522,
  "kend": 1523,
  "houd": 1524,
  "Al": 1525,
  "bel": 1526,
  "Mar@@": 1527,
  "projec@@": 1528,
  "Weet": 1529,
  "top": 1530,
  "stoppen": 1531,
  "geloven": 1532,
  "gaf": 1533,
  "wen": 1534,
  "kennis": 1535,
  "ontwer@@": 1536,
  "vast": 1537,
  "China": 1538,
  "inge@@": 1539,
  "waarbij": 1540,
  "slecht": 1541,
  "liefde": 1542,
  "s-@@": 1543,
  "sy@@": 1544,
  "gegeven": 1545,
  "sen@@": 1546,
  "passen": 1547,
  "daarvan": 1548,
  "thou@@": 1549,
  "spra@@": 1550,
  "voort": 1551,
  "000": 1552,
  "60": 1553,
  "ry": 1554,
  "dui@@": 1555,
  "familie": 1556,
  "gh@@": 1557,
  "gedrag": 1558,
  "dor@@": 1559,
  "aas": 1560,
  "zwar@@": 1561,
  "ka@@": 1562,
  "houdt": 1563,
  "kking": 1564,
  "voelen": 1565,
  "anti@@": 1566,
  "lingen": 1567,
  "vreem@@": 1568,
  "feit": 1569,
  "10@@": 1570,
  "Ter@@": 1571,
  "vrienden": 1572,
  "dom": 1573,
  "recht@@": 1574,
  "Daarom": 1575,
  "even@@": 1576,
  "ling": 1577,
  "kom": 1578,
  "verd@@": 1579,
  "Laat": 1580,
  "namelijk": 1581,
  "huis@@": 1582,
  "atten": 1583,
  "VS": 1584,
  "lever@@": 1585,
  "realis@@": 1586,
  "waarmee": 1587,
  "speci@@": 1588,
  "ts@@": 1589,
  "los@@": 1590,
  "Ar@@": 1591,
  "No@@": 1592,
  "studenten": 1593,
  "prijs": 1594,
  "oceaan": 1595,
  "groter": 1596,
  "é": 1597,
  "afgelopen": 1598,
  "vin@@": 1599,
  "rest": 1600,
  "un": 1601,
  "enten": 1602,
  "tieve": 1603,
  "theorie": 1604,
  "digheden": 1605,
  "maat@@": 1606,
  "naast": 1607,
  "onnen": 1608,
  "ton@@": 1609,
  "zicht@@": 1610,
  "log@@": 1611,
  "nation@@": 1612,
  "zoek": 1613,
  "tes": 1614,
  "gebouwd": 1615,
  "woe@@": 1616,
  "Har@@": 1617,
  "gebieden": 1618,
  "wilden": 1619,
  "patiën@@": 1620,
  "ijker": 1621,
  "wijs": 1622,
  "schu@@": 1623,
  "ontwerpen": 1624,
  "cultuur": 1625,
  "gehe@@": 1626,
  "bepaal@@": 1627,
  "wereld@@": 1628,
  "gelukkig": 1629,
  "genaamd": 1630,
  "ieder": 1631,
  "middelen": 1632,
  "teerd": 1633,
  "beteken@@": 1634,
  "ning": 1635,
  "onderwijs": 1636,
  "langs": 1637,
  "gina": 1638,
  "industri@@": 1639,
  "verantwoor@@": 1640,
  "ok@@": 1641,
  "voorspel@@": 1642,
  "geweldige": 1643,
  "beper@@": 1644,
  "loed": 1645,
  "He@@": 1646,
  "medi@@": 1647,
  "evolutie": 1648,
  "weinig": 1649,
  "CA": 1650,
  "gezegd": 1651,
  "slag": 1652,
  "relig@@": 1653,
  "vie@@": 1654,
  "vertr@@": 1655,
  "situ@@": 1656,
  "maatschapp@@": 1657,
  "omgeving": 1658,
  "wilt": 1659,
  "jonge": 1660,
  "vraa@@": 1661,
  "pakken": 1662,
  "economie": 1663,
  "TED@@": 1664,
  "teken@@": 1665,
  "direc@@": 1666,
  "sloten": 1667,
  "bereiken": 1668,
  "verdi@@": 1669,
  "schrij@@": 1670,
  "ziekte": 1671,
  "ergens": 1672,
  "niveau": 1673,
  "kosten": 1674,
  "anden": 1675,
  "Staten": 1676,
  "verbe@@": 1677,
  "geest": 1678,
  "zon": 1679,
  "sion@@": 1680,
  "lijn": 1681,
  "ner@@": 1682,
  "iteiten": 1683,
  "kanker": 1684,
  "bekend": 1685,
  "sor@@": 1686,
  "ond@@": 1687,
  "gre@@": 1688,
  "gemeen@@": 1689,
  "kon@@": 1690,
  "nieu@@": 1691,
  "gehoord": 1692,
  "pas": 1693,
  "vonden": 1694,
  "zwe@@": 1695,
  "zij@@": 1696,
  "oord": 1697,
  "eft": 1698,
  "S": 1699,
  "oos": 1700,
  "ontwikkelen": 1701,
  "baan": 1702,
  "midden": 1703,
  "leu@@": 1704,
  "thuis": 1705,
  "ïn@@": 1706,
  "hal@@": 1707,
  "stig": 1708,
  "fic@@": 1709,
  "belangrijke": 1710,
  "lijken": 1711,
  "Onze": 1712,
  "gehad": 1713,
  "feer": 1714,
  "Me@@": 1715,
  "geluid": 1716,
  "tisch": 1717,
  "werkte": 1718,
  "allerlei": 1719,
  "din@@": 1720,
  "top@@": 1721,
  "handen": 1722,
  "week": 1723,
  "lich@@": 1724,
  "reken@@": 1725,
  "lok@@": 1726,
  "tor": 1727,
  "blijkt": 1728,
  "voordat": 1729,
  "urt": 1730,
  "Ro@@": 1731,
  "atie@@": 1732,
  "est": 1733,
  "ggen": 1734,
  "communic@@": 1735,
  "ode": 1736,
  "aire": 1737,
  "mer": 1738,
  "comp@@": 1739,
  "zonne@@": 1740,
  "pap@@": 1741,
  "leiden": 1742,
  "kap@@": 1743,
  "ill@@": 1744,
  "fen@@": 1745,
  "wijzen": 1746,
  "som@@": 1747,
  "ton": 1748,
  "vertelt": 1749,
  "ation@@": 1750,
  "aars": 1751,
  "80": 1752,
  "creë@@": 1753,
  "ect": 1754,
  "verba@@": 1755,
  "materiaal": 1756,
  "Aarde": 1757,
  "beneden": 1758,
  "schreef": 1759,
  "vertelde": 1760,
  "ering": 1761,
  "presen@@": 1762,
  "zeven": 1763,
  "regels": 1764,
  "tegenwoor@@": 1765,
  "groeien": 1766,
  "ank": 1767,
  "schaal": 1768,
  "ologie": 1769,
  "ologische": 1770,
  "weken": 1771,
  "menselijk": 1772,
  "waarde": 1773,
  "dia": 1774,
  "co@@": 1775,
  "mt": 1776,
  "klin@@": 1777,
  "zorg": 1778,
  "drie@@": 1779,
  "gol@@": 1780,
  "lim@@": 1781,
  "Ook": 1782,
  "vij@@": 1783,
  "reden@@": 1784,
  "bacter@@": 1785,
  "Gr@@": 1786,
  "my@@": 1787,
  "kkeld": 1788,
  "mos@@": 1789,
  "stof@@": 1790,
  "onszelf": 1791,
  "wekk@@": 1792,
  "vermogen": 1793,
  "zen@@": 1794,
  "rond@@": 1795,
  "person@@": 1796,
  "bot@@": 1797,
  "rou@@": 1798,
  "inv@@": 1799,
  "erop": 1800,
  "pun@@": 1801,
  "illen": 1802,
  "ieten": 1803,
  "boe@@": 1804,
  "Wie": 1805,
  "bese@@": 1806,
  "isme": 1807,
  "gebeurd": 1808,
  "complex@@": 1809,
  "bouw": 1810,
  "mmer": 1811,
  "lief@@": 1812,
  "design": 1813,
  "fa@@": 1814,
  "anal@@": 1815,
  "laag": 1816,
  "blo@@": 1817,
  "klaar": 1818,
  "jouw": 1819,
  "erin": 1820,
  "wereldwij@@": 1821,
  "cl@@": 1822,
  "recht": 1823,
  "aandacht": 1824,
  "helft": 1825,
  "intelligen@@": 1826,
  "Go@@": 1827,
  "nee": 1828,
  "geba@@": 1829,
  "mij@@": 1830,
  "vangen": 1831,
  "Jullie": 1832,
  "stap": 1833,
  "tige": 1834,
  "fte": 1835,
  "dimen@@": 1836,
  "waa@@": 1837,
  "dur@@": 1838,
  "olie": 1839,
  "bar@@": 1840,
  "jo@@": 1841,
  "dank": 1842,
  "ico": 1843,
  "stri@@": 1844,
  "apen": 1845,
  "To@@": 1846,
  "video": 1847,
  "tuur": 1848,
  "ontwerp": 1849,
  "singen": 1850,
  "genoe@@": 1851,
  "maakten": 1852,
  "rot@@": 1853,
  "architec@@": 1854,
  "kilome@@": 1855,
  "brengt": 1856,
  "baar@@": 1857,
  "to": 1858,
  "contin@@": 1859,
  "zaak": 1860,
  "25": 1861,
  "enzo@@": 1862,
  "gevallen": 1863,
  "sturen": 1864,
  "Te@@": 1865,
  "gene": 1866,
  "des": 1867,
  "fi@@": 1868,
  "mass@@": 1869,
  "dragen": 1870,
  "gedurende": 1871,
  "Vol@@": 1872,
  "arti@@": 1873,
  "hy@@": 1874,
  "ris@@": 1875,
  "team": 1876,
  "systemen": 1877,
  "&#93;": 1878,
  "geef": 1879,
  "spi@@": 1880,
  "zul@@": 1881,
  "kort": 1882,
  "Zijn": 1883,
  "&#91;": 1884,
  "ervoor": 1885,
  "computers": 1886,
  "pers": 1887,
  "foto@@": 1888,
  "D": 1889,
  "fundamen@@": 1890,
  "ankt": 1891,
  "beroe@@": 1892,
  "slagen": 1893,
  "komende": 1894,
  "lang@@": 1895,
  "oplossing": 1896,
  "com@@": 1897,
  "dering": 1898,
  "gevan@@": 1899,
  "omhoog": 1900,
  "sterven": 1901,
  "mogelijkheid": 1902,
  "Den@@": 1903,
  "meen": 1904,
  "bekijken": 1905,
  "komst": 1906,
  "zagen": 1907,
  "langer": 1908,
  "mogelijkheden": 1909,
  "vliegen": 1910,
  "past": 1911,
  "bedo@@": 1912,
  "taat": 1913,
  "hoofd@@": 1914,
  "im": 1915,
  "ijs": 1916,
  "tuig": 1917,
  "bescha@@": 1918,
  "meer@@": 1919,
  "migen": 1920,
  "leerde": 1921,
  "Sch@@": 1922,
  "pp@@": 1923,
  "C": 1924,
  "ust@@": 1925,
  "interessante": 1926,
  "gebracht": 1927,
  "roo@@": 1928,
  "fab@@": 1929,
  "specif@@": 1930,
  "ler@@": 1931,
  "re": 1932,
  "toont": 1933,
  "aart": 1934,
  "mers": 1935,
  "O": 1936,
  "pan@@": 1937,
  "voeren": 1938,
  "kocht": 1939,
  "Bo@@": 1940,
  "Bij@@": 1941,
  "ó@@": 1942,
  "bracht": 1943,
  "daad": 1944,
  "alt": 1945,
  "are": 1946,
  "bra@@": 1947,
  "ontwi@@": 1948,
  "Hoe@@": 1949,
  "belang": 1950,
  "go": 1951,
  "keken": 1952,
  "Oh": 1953,
  "dom@@": 1954,
  "keek": 1955,
  "tic@@": 1956,
  "Geen": 1957,
  "Iedereen": 1958,
  "ces": 1959,
  "tel": 1960,
  "alge@@": 1961,
  "dat@@": 1962,
  "leiding": 1963,
  "nor@@": 1964,
  "namen": 1965,
  "ang": 1966,
  "arm": 1967,
  "stoff@@": 1968,
  "rit@@": 1969,
  "Ten": 1970,
  "evolu@@": 1971,
  "betere": 1972,
  "grot@@": 1973,
  "cep@@": 1974,
  "vand@@": 1975,
  "digheid": 1976,
  "kent": 1977,
  "beschik@@": 1978,
  "enorm": 1979,
  "onderne@@": 1980,
  "zaam": 1981,
  "visu@@": 1982,
  "tien@@": 1983,
  "tit@@": 1984,
  "Le@@": 1985,
  "leer@@": 1986,
  "wetenschappers": 1987,
  "verlie@@": 1988,
  "mot@@": 1989,
  "Van": 1990,
  "tradi@@": 1991,
  "tien": 1992,
  "goo@@": 1993,
  "urs": 1994,
  "financi@@": 1995,
  "biolog@@": 1996,
  "OK": 1997,
  "gezet": 1998,
  "plekken": 1999,
  "gesteld": 2000,
  "psych@@": 2001,
  "Chris": 2002,
  "heer@@": 2003,
  "Amerik@@": 2004,
  "steren": 2005,
  "voed@@": 2006,
  "richting": 2007,
  "hersen@@": 2008,
  "kwal@@": 2009,
  "bevolking": 2010,
  "miljoenen": 2011,
  "ssen@@": 2012,
  "ots": 2013,
  "grotere": 2014,
  "kjes": 2015,
  "vast@@": 2016,
  "stelt": 2017,
  "moder@@": 2018,
  "hart": 2019,
  "gelooflijk": 2020,
  "groei": 2021,
  "antwoorden": 2022,
  "hoeveel@@": 2023,
  "beta@@": 2024,
  "bewegen": 2025,
  "letterlijk": 2026,
  "stelde": 2027,
  "centr@@": 2028,
  "iel": 2029,
  "peri@@": 2030,
  "da": 2031,
  "sing": 2032,
  "super@@": 2033,
  "schil@@": 2034,
  "/": 2035,
  "bal@@": 2036,
  "dic@@": 2037,
  "effec@@": 2038,
  "sters": 2039,
  "groei@@": 2040,
  "sche@@": 2041,
  "innov@@": 2042,
  "ub@@": 2043,
  "loop": 2044,
  "camera": 2045,
  "wen@@": 2046,
  "pen@@": 2047,
  "car@@": 2048,
  "princip@@": 2049,
  "ar": 2050,
  "yp@@": 2051,
  "individu@@": 2052,
  "gelu@@": 2053,
  "defin@@": 2054,
  "computer@@": 2055,
  "univers@@": 2056,
  "best": 2057,
  "stand@@": 2058,
  "ks@@": 2059,
  "o-@@": 2060,
  "inve@@": 2061,
  "cul@@": 2062,
  "consu@@": 2063,
  "imp@@": 2064,
  "Europa": 2065,
  "tor@@": 2066,
  "th": 2067,
  "wee@@": 2068,
  "elk@@": 2069,
  "Oo@@": 2070,
  "technolog@@": 2071,
  "combin@@": 2072,
  "wijl": 2073,
  "ars": 2074,
  "tur@@": 2075,
  "d-@@": 2076,
  "gor@@": 2077,
  "ware": 2078,
  "mobi@@": 2079,
  "nat@@": 2080,
  "kar@@": 2081,
  "ast@@": 2082,
  "cr@@": 2083,
  "ort": 2084,
  "199@@": 2085,
  "vis": 2086,
  "ul": 2087,
  "energ@@": 2088,
  "absolu@@": 2089,
  "ium": 2090,
  "half": 2091,
  "geloo@@": 2092,
  "mige": 2093,
  "dier": 2094,
  "fs": 2095,
  "Afrik@@": 2096,
  "chting": 2097,
  "sto@@": 2098,
  "Zo@@": 2099,
  "sub@@": 2100,
  "fac@@": 2101,
  "zing": 2102,
  "pol@@": 2103,
  "Mars": 2104,
  "sels": 2105,
  "cur@@": 2106,
  "grij@@": 2107,
  "wal@@": 2108,
  "Jap@@": 2109,
  "ure": 2110,
  "mom@@": 2111,
  "moeil@@": 2112,
  "Mo@@": 2113,
  "model@@": 2114,
  "gge@@": 2115,
  "medic@@": 2116,
  "ill": 2117,
  "oper@@": 2118,
  "ite@@": 2119,
  "12": 2120,
  "chts": 2121,
  "prot@@": 2122,
  "ool@@": 2123,
  "Dan@@": 2124,
  "sne@@": 2125,
  "ingen@@": 2126,
  "mel": 2127,
  "hon@@": 2128,
  "stam@@": 2129,
  "Pro@@": 2130,
  "Re@@": 2131,
  "Mi@@": 2132,
  "meth@@": 2133,
  "DNA": 2134,
  "Par@@": 2135,
  "pr@@": 2136,
  "eeu@@": 2137,
  "La@@": 2138,
  "Au@@": 2139,
  "Ze@@": 2140,
  "suc@@": 2141,
  "effect": 2142,
  "succ@@": 2143,
  "T": 2144,
  "hoog": 2145,
  "serv@@": 2146,
  "è@@": 2147,
  "vers": 2148,
  "drin@@": 2149,
  "experi@@": 2150,
  "lit@@": 2151,
  "I": 2152,
  "art": 2153,
  "Th@@": 2154,
  "real@@": 2155,
  "revolu@@": 2156,
  "grat@@": 2157,
  "Car@@": 2158,
  "ite": 2159,
  "end@@": 2160,
  "am": 2161,
  "cel@@": 2162,
  "500": 2163,
  "machines": 2164,
  "U": 2165,
  "mate": 2166,
  "name": 2167,
  "comple@@": 2168,
  "deta@@": 2169,
  "11": 2170,
  "creat@@": 2171,
  "70": 2172,
  "ate": 2173,
  "experiment": 2174,
  "ps": 2175,
  "oli@@": 2176,
  "mel@@": 2177,
  "plat@@": 2178,
  "Ha@@": 2179,
  "ator": 2180,
  "18": 2181,
  "Con@@": 2182,
  "ip": 2183,
  "iz@@": 2184,
  "begrij@@": 2185,
  "lap@@": 2186,
  "ly@@": 2187,
  "iet@@": 2188,
  "ners": 2189,
  "gest@@": 2190,
  "ms": 2191,
  "mogel@@": 2192,
  "struc@@": 2193,
  "lar@@": 2194,
  "effici@@": 2195,
  "pot@@": 2196,
  "toon@@": 2197,
  "ther@@": 2198,
  "ames": 2199,
  "baby": 2200,
  "ea@@": 2201,
  "micro@@": 2202,
  "wonder@@": 2203,
  "lec@@": 2204,
  "cir@@": 2205,
  "materi@@": 2206,
  "ey": 2207,
  "ess@@": 2208,
  "200": 2209,
  "Indi@@": 2210,
  "olo@@": 2211,
  "plan": 2212,
  "fer@@": 2213,
  "cultur@@": 2214,
  "ay": 2215,
  "M": 2216,
  "ili@@": 2217,
  "um@@": 2218,
  "democr@@": 2219,
  "Sa@@": 2220,
  "sol@@": 2221,
  "start": 2222,
  "syn@@": 2223,
  "Ju@@": 2224,
  "We@@": 2225,
  "vari@@": 2226,
  "woor@@": 2227,
  "favor@@": 2228,
  "instru@@": 2229,
  "clu@@": 2230,
  "eet": 2231,
  "oce@@": 2232,
  "media": 2233,
  "ister": 2234,
  "hard": 2235,
  "G": 2236,
  "emot@@": 2237,
  "Inter@@": 2238,
  "test": 2239,
  "”": 2240,
  "90": 2241,
  "ö@@": 2242,
  "product": 2243,
  "Li@@": 2244,
  "Af@@": 2245,
  "mal@@": 2246,
  "bil@@": 2247,
  "mag@@": 2248,
  "anc@@": 2249,
  "desig@@": 2250,
  "cha@@": 2251,
  "robot": 2252,
  "18@@": 2253,
  "ja@@": 2254,
  "gin@@": 2255,
  "acu@@": 2256,
  "’": 2257,
  "bri@@": 2258,
  "pub@@": 2259,
  "ment@@": 2260,
  "regi@@": 2261,
  "Sp@@": 2262,
  "confer@@": 2263,
  "ash@@": 2264,
  "act": 2265,
  "dens": 2266,
  "soci@@": 2267,
  "neer": 2268,
  "Uni@@": 2269,
  "erg@@": 2270,
  "vlie@@": 2271,
  "fra@@": 2272,
  "inspir@@": 2273,
  "P": 2274,
  "gas@@": 2275,
  "films": 2276,
  "gar@@": 2277,
  "hop@@": 2278,
  "igen": 2279,
  "geloof@@": 2280,
  "la": 2281,
  "zelfde": 2282,
  "compas@@": 2283,
  "ros@@": 2284,
  "sm@@": 2285,
  "gebeur@@": 2286,
  "werel@@": 2287,
  "molecu@@": 2288,
  "loc@@": 2289,
  "iden@@": 2290,
  "The": 2291,
  "cap@@": 2292,
  "ev@@": 2293,
  "Google": 2294,
  "extre@@": 2295,
  "colle@@": 2296,
  "CO@@": 2297,
  "age": 2298,
  "os": 2299,
  "foc@@": 2300,
  "David": 2301,
  "…": 2302,
  "ut@@": 2303,
  "ast": 2304,
  "norm@@": 2305,
  "inst@@": 2306,
  "contact": 2307,
  "hoo@@": 2308,
  "–": 2309,
  "enden": 2310,
  "neg@@": 2311,
  "part@@": 2312,
  "v": 2313,
  "mechan@@": 2314,
  "ene@@": 2315,
  "extra": 2316,
  "ieden": 2317,
  "hul@@": 2318,
  "dent": 2319,
  "proc@@": 2320,
  "ity": 2321,
  "allen": 2322,
  "Ken@@": 2323,
  "che@@": 2324,
  "vide@@": 2325,
  "virus": 2326,
  "Bra@@": 2327,
  "essen@@": 2328,
  "ama": 2329,
  "dre@@": 2330,
  "ad": 2331,
  "als@@": 2332,
  "conflic@@": 2333,
  "duiz@@": 2334,
  "ore": 2335,
  "Do@@": 2336,
  "tru@@": 2337,
  "stig@@": 2338,
  "iet": 2339,
  "gu@@": 2340,
  "goe@@": 2341,
  "mater@@": 2342,
  "ante": 2343,
  "naa@@": 2344,
  "website": 2345,
  "sequ@@": 2346,
  "air": 2347,
  "mes": 2348,
  "ote": 2349,
  "vir@@": 2350,
  "dia@@": 2351,
  "ce": 2352,
  "glob@@": 2353,
  "cy@@": 2354,
  "stem": 2355,
  "form@@": 2356,
  "objec@@": 2357,
  "ragen": 2358,
  "Kor@@": 2359,
  "anda": 2360,
  "statist@@": 2361,
  "schap@@": 2362,
  "software": 2363,
  "chti@@": 2364,
  "dol@@": 2365,
  "heid@@": 2366,
  "cre@@": 2367,
  "word": 2368,
  "aam": 2369,
  "fan@@": 2370,
  "object": 2371,
  "kno@@": 2372,
  "schijn@@": 2373,
  "prij@@": 2374,
  "st-@@": 2375,
  "lot": 2376,
  "onom@@": 2377,
  "zig": 2378,
  "Brit@@": 2379,
  "aria": 2380,
  "Char@@": 2381,
  "“": 2382,
  "ater": 2383,
  "nd": 2384,
  "symme@@": 2385,
  "fr@@": 2386,
  "rist@@": 2387,
  "mogen": 2388,
  "ce@@": 2389,
  "chem@@": 2390,
  "arch@@": 2391,
  "cam@@": 2392,
  "ins": 2393,
  "prof@@": 2394,
  "crisis": 2395,
  "tec@@": 2396,
  "wind": 2397,
  "mun@@": 2398,
  "transp@@": 2399,
  "H": 2400,
  "perspec@@": 2401,
  "West@@": 2402,
  "volle@@": 2403,
  "radi@@": 2404,
  "code": 2405,
  "rol@@": 2406,
  "istan": 2407,
  "ly": 2408,
  "docu@@": 2409,
  "leg@@": 2410,
  "ome@@": 2411,
  "cat@@": 2412,
  "Col@@": 2413,
  "discus@@": 2414,
  "para@@": 2415,
  "leven@@": 2416,
  "ber": 2417,
  "ouden": 2418,
  "ans@@": 2419,
  "famil@@": 2420,
  "kwa@@": 2421,
  "aller@@": 2422,
  "tal": 2423,
  "Mid@@": 2424,
  "cu@@": 2425,
  "temperat@@": 2426,
  "enig@@": 2427,
  "makkel@@": 2428,
  "col@@": 2429,
  "ator@@": 2430,
  "bat@@": 2431,
  "mach@@": 2432,
  "volu@@": 2433,
  "bliek": 2434,
  "impact": 2435,
  "hor@@": 2436,
  "context": 2437,
  "elek@@": 2438,
  "ouw": 2439,
  "eth@@": 2440,
  "robots": 2441,
  "int": 2442,
  "vrou@@": 2443,
  "Jo@@": 2444,
  "concept": 2445,
  "ca@@": 2446,
  "log": 2447,
  "Mc@@": 2448,
  "Richard": 2449,
  "cent": 2450,
  "E": 2451,
  "ils": 2452,
  "vacc@@": 2453,
  "fascin@@": 2454,
  "infra@@": 2455,
  "techni@@": 2456,
  "inf@@": 2457,
  "neur@@": 2458,
  "sig@@": 2459,
  "Mil@@": 2460,
  "Wor@@": 2461,
  "bin@@": 2462,
  "Su@@": 2463,
  "not@@": 2464,
  "gs": 2465,
  "iteit@@": 2466,
  "Ira@@": 2467,
  "Ber@@": 2468,
  "creati@@": 2469,
  "bed": 2470,
  "type": 2471,
  "perfec@@": 2472,
  "ose": 2473,
  "ouwd": 2474,
  "Bar@@": 2475,
  "itu@@": 2476,
  "ation": 2477,
  "do": 2478,
  "verz@@": 2479,
  "mp": 2480,
  "Dar@@": 2481,
  "Ie@@": 2482,
  "exp@@": 2483,
  "dynam@@": 2484,
  "ot": 2485,
  "inste@@": 2486,
  "aul": 2487,
  "pres@@": 2488,
  "osy@@": 2489,
  "veer": 2490,
  "dy": 2491,
  "kil@@": 2492,
  "blog@@": 2493,
  "strateg@@": 2494,
  "stat@@": 2495,
  "off@@": 2496,
  "Californi@@": 2497,
  "the": 2498,
  "John": 2499,
  "web": 2500,
  "ace": 2501,
  "belangrijk@@": 2502,
  "Rus@@": 2503,
  "milj@@": 2504,
  "sign@@": 2505,
  "N": 2506,
  "ami": 2507,
  "Ho@@": 2508,
  "trans@@": 2509,
  "Niger@@": 2510,
  "twe@@": 2511,
  "typ@@": 2512,
  "esc@@": 2513,
  "belan@@": 2514,
  "illu@@": 2515,
  "ns": 2516,
  "ford": 2517,
  "pal@@": 2518,
  "att@@": 2519,
  "bert": 2520,
  "uro@@": 2521,
  "student": 2522,
  "twee@@": 2523,
  "dd@@": 2524,
  "tan@@": 2525,
  "geving": 2526,
  "all": 2527,
  "dies": 2528,
  "progra@@": 2529,
  "Man@@": 2530,
  "300": 2531,
  "opti@@": 2532,
  "16": 2533,
  "tar@@": 2534,
  "organ@@": 2535,
  "online": 2536,
  "lab": 2537,
  "moti@@": 2538,
  "mark@@": 2539,
  "W": 2540,
  "perfect": 2541,
  "lage": 2542,
  "fo@@": 2543,
  "Cen@@": 2544,
  "inten@@": 2545,
  "maa@@": 2546,
  "ys@@": 2547,
  "beur@@": 2548,
  "loe@@": 2549,
  "198@@": 2550,
  "ington": 2551,
  "Ti@@": 2552,
  "sur@@": 2553,
  "F": 2554,
  "AS@@": 2555,
  "emotion@@": 2556,
  "jec@@": 2557,
  "Man": 2558,
  "ws": 2559,
  "priv@@": 2560,
  "mani@@": 2561,
  "At@@": 2562,
  "Cam@@": 2563,
  "viru@@": 2564,
  "ra": 2565,
  "autom@@": 2566,
  "Hu@@": 2567,
  "mic@@": 2568,
  "kre@@": 2569,
  "up@@": 2570,
  "band": 2571,
  "Ri@@": 2572,
  "popu@@": 2573,
  "a-@@": 2574,
  "HIV": 2575,
  "interess@@": 2576,
  "coo@@": 2577,
  "fle@@": 2578,
  "ick": 2579,
  "schapp@@": 2580,
  "bren@@": 2581,
  "mma": 2582,
  "sh": 2583,
  "collec@@": 2584,
  "Se@@": 2585,
  "ach": 2586,
  "enti@@": 2587,
  "Is@@": 2588,
  "ational": 2589,
  "profes@@": 2590,
  "Mon@@": 2591,
  "mit@@": 2592,
  "K": 2593,
  "..": 2594,
  "bedrij@@": 2595,
  "vel": 2596,
  "var@@": 2597,
  "lie": 2598,
  "Si@@": 2599,
  "ta": 2600,
  "Di@@": 2601,
  "resp@@": 2602,
  "Bi@@": 2603,
  "evi@@": 2604,
  "lea@@": 2605,
  "demon@@": 2606,
  "concentr@@": 2607,
  "Chin@@": 2608,
  "Com@@": 2609,
  "pie@@": 2610,
  "commer@@": 2611,
  "stitu@@": 2612,
  "minu@@": 2613,
  "vertel@@": 2614,
  "dro@@": 2615,
  "intu@@": 2616,
  "gh": 2617,
  "simul@@": 2618,
  "ack": 2619,
  "illi@@": 2620,
  "alter@@": 2621,
  "geme@@": 2622,
  "S.": 2623,
  "ase": 2624,
  "cop@@": 2625,
  "aling": 2626,
  "Po@@": 2627,
  "up": 2628,
  "au": 2629,
  "disc@@": 2630,
  "tast@@": 2631,
  "grap@@": 2632,
  "our": 2633,
  "ziek": 2634,
  "Ex@@": 2635,
  "Chinese": 2636,
  "bit@@": 2637,
  "res": 2638,
  "be": 2639,
  "vr@@": 2640,
  "het@@": 2641,
  "complex": 2642,
  "V": 2643,
  "spir@@": 2644,
  "fu@@": 2645,
  "cer@@": 2646,
  "mole@@": 2647,
  "mas@@": 2648,
  "Nor@@": 2649,
  "inc@@": 2650,
  "doe@@": 2651,
  "tran@@": 2652,
  "emen": 2653,
  "L": 2654,
  "gelukk@@": 2655,
  "wat@@": 2656,
  "emt": 2657,
  "ph@@": 2658,
  "ject": 2659,
  "nolog@@": 2660,
  "ward": 2661,
  "Per@@": 2662,
  "ow": 2663,
  "verse": 2664,
  "cra@@": 2665,
  "fig@@": 2666,
  "gezon@@": 2667,
  "stru@@": 2668,
  "mber": 2669,
  "‘": 2670,
  "intel@@": 2671,
  "cont@@": 2672,
  "eindelijk": 2673,
  "Ph@@": 2674,
  "ala@@": 2675,
  "bas@@": 2676,
  "lon@@": 2677,
  "tage": 2678,
  "gave": 2679,
  "atur@@": 2680,
  "art@@": 2681,
  "institu@@": 2682,
  "win": 2683,
  "ids": 2684,
  "ack@@": 2685,
  "ss": 2686,
  "nuc@@": 2687,
  "jour@@": 2688,
  "run@@": 2689,
  "ice": 2690,
  "ü@@": 2691,
  "moo@@": 2692,
  "laat@@": 2693,
  "agen@@": 2694,
  "tend": 2695,
  "Pe@@": 2696,
  "theor@@": 2697,
  "wood": 2698,
  "antwoor@@": 2699,
  "thu@@": 2700,
  "onds": 2701,
  "web@@": 2702,
  "ya": 2703,
  "gas": 2704,
  "&@@": 2705,
  "show": 2706,
  "labor@@": 2707,
  "its": 2708,
  "schijnlijk": 2709,
  "univer@@": 2710,
  "verh@@": 2711,
  "cit@@": 2712,
  "Euro@@": 2713,
  "our@@": 2714,
  "verschill@@": 2715,
  "cli@@": 2716,
  "iti@@": 2717,
  "nis": 2718,
  "ors": 2719,
  "get": 2720,
  "hom@@": 2721,
  "era": 2722,
  "prom@@": 2723,
  "popul@@": 2724,
  "indivi@@": 2725,
  "tting": 2726,
  "face": 2727,
  "by": 2728,
  "nen@@": 2729,
  "genaa@@": 2730,
  "ket": 2731,
  "low": 2732,
  "tegr@@": 2733,
  "nam@@": 2734,
  "introduc@@": 2735,
  "don": 2736,
  "ome": 2737,
  "olog@@": 2738,
  "sci@@": 2739,
  "conf@@": 2740,
  "transform@@": 2741,
  "tis@@": 2742,
  "Gre@@": 2743,
  "Bu@@": 2744,
  "bevol@@": 2745,
  "set": 2746,
  "put": 2747,
  "shi@@": 2748,
  "stic": 2749,
  "ants": 2750,
  "gebrui@@": 2751,
  "talk": 2752,
  "eenv@@": 2753,
  "cru@@": 2754,
  "wn": 2755,
  "0-@@": 2756,
  "ics": 2757,
  "pul@@": 2758,
  "aring": 2759,
  "veel@@": 2760,
  "For@@": 2761,
  "cool": 2762,
  "X@@": 2763,
  "Afri@@": 2764,
  "out@@": 2765,
  "reg@@": 2766,
  "ush": 2767,
  "begin@@": 2768,
  "origin@@": 2769,
  "dri@@": 2770,
  "use@@": 2771,
  "rea@@": 2772,
  "been": 2773,
  "orig@@": 2774,
  "ages": 2775,
  "Men@@": 2776,
  "anim@@": 2777,
  "ves": 2778,
  "hoof@@": 2779,
  "gedra@@": 2780,
  "DN@@": 2781,
  "betek@@": 2782,
  "son@@": 2783,
  "ran": 2784,
  "temp@@": 2785,
  "stop": 2786,
  "ities": 2787,
  "Q@@": 2788,
  "geh@@": 2789,
  "site": 2790,
  "ges": 2791,
  "ines": 2792,
  "requ@@": 2793,
  "argu@@": 2794,
  "sym@@": 2795,
  "zz@@": 2796,
  "sit@@": 2797,
  "ago": 2798,
  "sul@@": 2799,
  "ary": 2800,
  "form": 2801,
  "construc@@": 2802,
  "prin@@": 2803,
  "expl@@": 2804,
  "liter@@": 2805,
  "R": 2806,
  "ence": 2807,
  "fin@@": 2808,
  "bul@@": 2809,
  "ny": 2810,
  "tom@@": 2811,
  "geze@@": 2812,
  "compe@@": 2813,
  "ref@@": 2814,
  "tin@@": 2815,
  "Wh@@": 2816,
  "sting": 2817,
  "cla@@": 2818,
  "stic@@": 2819,
  "AIDS": 2820,
  "ey@@": 2821,
  "condi@@": 2822,
  "gewel@@": 2823,
  "cal@@": 2824,
  "enc@@": 2825,
  "dollars": 2826,
  "bom@@": 2827,
  "ty": 2828,
  "solu@@": 2829,
  "ox@@": 2830,
  "archit@@": 2831,
  "ney": 2832,
  "pret@@": 2833,
  "robot@@": 2834,
  "ony": 2835,
  "alk": 2836,
  "tain@@": 2837,
  "Ta@@": 2838,
  "gewe@@": 2839,
  "lob@@": 2840,
  "than": 2841,
  "veau": 2842,
  "parti@@": 2843,
  "ame": 2844,
  "right": 2845,
  "doc@@": 2846,
  "last": 2847,
  "time": 2848,
  "ends": 2849,
  "ings": 2850,
  "tun@@": 2851,
  "equ@@": 2852,
  "krij@@": 2853,
  "ining": 2854,
  "oven": 2855,
  "enter@@": 2856,
  "ance": 2857,
  "stro@@": 2858,
  "press@@": 2859,
  "uni@@": 2860,
  "ijkheden": 2861,
  "ple": 2862,
  "sour@@": 2863,
  "my": 2864,
  "ther": 2865,
  "vil@@": 2866,
  "term": 2867,
  "curr@@": 2868,
  "osp@@": 2869,
  "ah": 2870,
  "connec@@": 2871,
  "auth@@": 2872,
  "resi@@": 2873,
  "tem@@": 2874,
  "teru@@": 2875,
  "ands": 2876,
  "0": 2877,
  "kele": 2878,
  "meet": 2879,
  "sens@@": 2880,
  "wing": 2881,
  "ape": 2882,
  "X": 2883,
  "à": 2884,
  "$": 2885,
  "á@@": 2886,
  "J": 2887,
  "É@@": 2888,
  "ê@@": 2889,
  "—": 2890,
  "Y": 2891,
  "è": 2892,
  "°": 2893,
  "ó": 2894,
  "í@@": 2895,
  "Q": 2896,
  "Z": 2897,
  "½": 2898,
  "+": 2899,
  "ï": 2900,
  "ã@@": 2901,
  "♪": 2902,
  "=": 2903,
  "q@@": 2904,
  ")": 2905,
  "²": 2906,
  "q": 2907,
  "ç@@": 2908,
  "ñ@@": 2909,
  "#": 2910,
  "à@@": 2911,
  "ä@@": 2912,
  "@": 2913,
  "¨": 2914,
  "*": 2915,
  "ň@@": 2916,
  "´": 2917,
  "º@@": 2918,
  "ò@@": 2919,
  "£": 2920,
  "ú": 2921,
  "`": 2922,
  "`@@": 2923,
  "^": 2924,
  "ì@@": 2925,
  "​": 2926,
  "ú@@": 2927,
  "î@@": 2928,
  "â@@": 2929,
  "(": 2930,
  "¾": 2931,
  "å@@": 2932,
  "ā@@": 2933,
  "˚": 2934,
  "Ó@@": 2935,
  "ê": 2936,
  "º": 2937,
  "™": 2938,
  "á": 2939,
  "€": 2940
}