{
  "<EOS>": 0,
  "<GO>": 1,
  "<UNK>": 2,
  ",": 3,
  ".": 4,
  "the": 5,
  "to": 6,
  "of": 7,
  "a": 8,
  "and": 9,
  "that": 10,
  "I": 11,
  "in": 12,
  "is": 13,
  "it": 14,
  "you": 15,
  "&apos;s": 16,
  "we": 17,
  "And": 18,
  "this": 19,
  "&quot;": 20,
  "--": 21,
  "on": 22,
  "was": 23,
  "are": 24,
  "have": 25,
  "for": 26,
  "they": 27,
  "?": 28,
  "with": 29,
  "can": 30,
  "at": 31,
  "&apos;t": 32,
  "what": 33,
  "about": 34,
  "So": 35,
  "be": 36,
  "all": 37,
  "as": 38,
  "an": 39,
  "one": 40,
  "y": 41,
  ":": 42,
  "there": 43,
  "do": 44,
  "s@@": 45,
  "not": 46,
  "ing": 47,
  "in@@": 48,
  "re@@": 49,
  "ed": 50,
  "&apos;re": 51,
  "It": 52,
  "or": 53,
  "like": 54,
  "people": 55,
  "al": 56,
  "from": 57,
  "so": 58,
  "-@@": 59,
  "es": 60,
  "very": 61,
  "my": 62,
  "s": 63,
  "a@@": 64,
  "f@@": 65,
  "out": 66,
  "ts": 67,
  "know": 68,
  "The": 69,
  "just": 70,
  "p@@": 71,
  "e": 72,
  "but": 73,
  "c@@": 74,
  "me": 75,
  "t@@": 76,
  "We": 77,
  "our": 78,
  "But": 79,
  "up": 80,
  "b@@": 81,
  "if": 82,
  "going": 83,
  "these": 84,
  "S@@": 85,
  "e@@": 86,
  "m@@": 87,
  "them": 88,
  "by": 89,
  "de@@": 90,
  "g@@": 91,
  "which": 92,
  "he": 93,
  "because": 94,
  "d@@": 95,
  "ation": 96,
  "think": 97,
  "us": 98,
  "get": 99,
  "li@@": 100,
  "i@@": 101,
  "here": 102,
  "see": 103,
  "r@@": 104,
  "en@@": 105,
  "had": 106,
  "y@@": 107,
  "how": 108,
  "more": 109,
  "when": 110,
  "really": 111,
  "an@@": 112,
  "t": 113,
  "This": 114,
  "&apos;ve": 115,
  "h@@": 116,
  "would": 117,
  "st@@": 118,
  "who": 119,
  "You": 120,
  "your": 121,
  "ac@@": 122,
  "world": 123,
  "&apos;m": 124,
  "o@@": 125,
  "way": 126,
  "time": 127,
  "were": 128,
  "ar@@": 129,
  "then": 130,
  "al@@": 131,
  "where": 132,
  "di@@": 133,
  "don": 134,
  "has": 135,
  "ate": 136,
  "n@@": 137,
  "things": 138,
  "their": 139,
  "w@@": 140,
  "u@@": 141,
  "some": 142,
  "ly": 143,
  "un@@": 144,
  "l@@": 145,
  "go": 146,
  "at@@": 147,
  "actually": 148,
  "st": 149,
  "er": 150,
  "into": 151,
  "B@@": 152,
  "or@@": 153,
  "years": 154,
  "tion": 155,
  "will": 156,
  "now": 157,
  "con@@": 158,
  "M@@": 159,
  "A@@": 160,
  "want": 161,
  "other": 162,
  "ve": 163,
  "k": 164,
  "thing": 165,
  "make": 166,
  "se@@": 167,
  "said": 168,
  "it@@": 169,
  "They": 170,
  "ri@@": 171,
  "been": 172,
  "er@@": 173,
  "C@@": 174,
  "could": 175,
  "right": 176,
  "P@@": 177,
  "on@@": 178,
  "Now": 179,
  "♫": 180,
  "ch@@": 181,
  "able": 182,
  "o": 183,
  "got": 184,
  "k@@": 185,
  "le@@": 186,
  "th@@": 187,
  "something": 188,
  "ex@@": 189,
  "little": 190,
  "W@@": 191,
  "T@@": 192,
  "E@@": 193,
  "much": 194,
  "over": 195,
  "That": 196,
  "ent": 197,
  "say": 198,
  "ma@@": 199,
  "two": 200,
  "la@@": 201,
  "than": 202,
  "sp@@": 203,
  "work": 204,
  "G@@": 205,
  "no": 206,
  "ity": 207,
  ";": 208,
  "first": 209,
  "look": 210,
  "as@@": 211,
  "D@@": 212,
  "ad@@": 213,
  "se": 214,
  "ds": 215,
  "si@@": 216,
  "ted": 217,
  "back": 218,
  "el@@": 219,
  "those": 220,
  "kind": 221,
  "sh@@": 222,
  "ies": 223,
  "su@@": 224,
  "ic@@": 225,
  "life": 226,
  "his": 227,
  "m": 228,
  "ally": 229,
  "il@@": 230,
  "ur@@": 231,
  "ra@@": 232,
  "What": 233,
  "th": 234,
  "R@@": 235,
  "F@@": 236,
  "ice": 237,
  "also": 238,
  "im@@": 239,
  "ti@@": 240,
  "only": 241,
  "ap@@": 242,
  "ting": 243,
  "H@@": 244,
  "sion": 245,
  "l": 246,
  "ous": 247,
  "lot": 248,
  "ers": 249,
  "for@@": 250,
  "v@@": 251,
  "ding": 252,
  "she": 253,
  "L@@": 254,
  "ks": 255,
  "come": 256,
  "There": 257,
  "ical": 258,
  "&apos;ll": 259,
  "most": 260,
  "les": 261,
  "he@@": 262,
  "down": 263,
  "n": 264,
  "be@@": 265,
  "le": 266,
  "os@@": 267,
  "In": 268,
  "de": 269,
  "ine": 270,
  "ated": 271,
  "ar": 272,
  "h": 273,
  "many": 274,
  "did": 275,
  "take": 276,
  "ce": 277,
  "ment": 278,
  "new": 279,
  "around": 280,
  "good": 281,
  "need": 282,
  "d": 283,
  "i": 284,
  "its": 285,
  "op@@": 286,
  "pa@@": 287,
  "day": 288,
  "ge": 289,
  "put": 290,
  "me@@": 291,
  "ul@@": 292,
  "lo@@": 293,
  "ro@@": 294,
  "ter": 295,
  "different": 296,
  "her": 297,
  "ec@@": 298,
  "ic": 299,
  "even": 300,
  "p": 301,
  "doing": 302,
  "we@@": 303,
  "ir@@": 304,
  "Well": 305,
  "through": 306,
  "is@@": 307,
  "ne@@": 308,
  "qu@@": 309,
  "hi@@": 310,
  "sc@@": 311,
  "He": 312,
  "ot@@": 313,
  "being": 314,
  "N@@": 315,
  "king": 316,
  "same": 317,
  "If": 318,
  "x@@": 319,
  "str@@": 320,
  "ol@@": 321,
  "any": 322,
  "ant": 323,
  "tr@@": 324,
  "every": 325,
  "I@@": 326,
  "use": 327,
  "per@@": 328,
  "ations": 329,
  "z@@": 330,
  "sa@@": 331,
  "ating": 332,
  "bi@@": 333,
  "called": 334,
  "c": 335,
  "fe@@": 336,
  "am@@": 337,
  "1@@": 338,
  "ence": 339,
  "ou@@": 340,
  "tra@@": 341,
  "inter@@": 342,
  "K@@": 343,
  "old": 344,
  "ab@@": 345,
  "id": 346,
  "three": 347,
  "ge@@": 348,
  "te@@": 349,
  "gre@@": 350,
  "ter@@": 351,
  "made": 352,
  "ke": 353,
  "O@@": 354,
  "ad": 355,
  "&apos;d": 356,
  "A": 357,
  "talk": 358,
  "pre@@": 359,
  "year": 360,
  "J@@": 361,
  "red": 362,
  "gh@@": 363,
  "ying": 364,
  "ha@@": 365,
  "br@@": 366,
  "well": 367,
  "ary": 368,
  "oc@@": 369,
  "tre@@": 370,
  "tions": 371,
  "end": 372,
  "ics": 373,
  "pro@@": 374,
  "bo@@": 375,
  "why": 376,
  "wor@@": 377,
  "to@@": 378,
  "ms": 379,
  "ty": 380,
  "human": 381,
  "om@@": 382,
  "wa@@": 383,
  "bu@@": 384,
  "pr@@": 385,
  "ls": 386,
  "last": 387,
  "ure": 388,
  "TED": 389,
  "par@@": 390,
  "percent": 391,
  "mo@@": 392,
  "led": 393,
  "idea": 394,
  "change": 395,
  "ss": 396,
  "g": 397,
  "great": 398,
  "et": 399,
  "als": 400,
  "gen@@": 401,
  "ded": 402,
  "fact": 403,
  "ser@@": 404,
  "went": 405,
  "ance": 406,
  "big": 407,
  "pe@@": 408,
  "another": 409,
  "ose": 410,
  "low": 411,
  "vi@@": 412,
  "find": 413,
  "gu@@": 414,
  "tell": 415,
  "x": 416,
  "didn": 417,
  "ons": 418,
  "sort": 419,
  "ago": 420,
  "ver@@": 421,
  "thought": 422,
  "show": 423,
  "te": 424,
  "ci@@": 425,
  "bit": 426,
  "started": 427,
  "place": 428,
  "gra@@": 429,
  "off": 430,
  "w": 431,
  "ch": 432,
  "ef@@": 433,
  "give": 434,
  "ved": 435,
  "ings": 436,
  "course": 437,
  "lic@@": 438,
  "comp@@": 439,
  "est": 440,
  "should": 441,
  "ves": 442,
  "car@@": 443,
  "ss@@": 444,
  "important": 445,
  "ess": 446,
  "water": 447,
  "cor@@": 448,
  "own": 449,
  "today": 450,
  "em@@": 451,
  "let": 452,
  "min@@": 453,
  "rec@@": 454,
  "mean": 455,
  "der": 456,
  "fi@@": 457,
  "rel@@": 458,
  "used": 459,
  "pos@@": 460,
  "&apos;": 461,
  "does": 462,
  "after": 463,
  "story": 464,
  "2@@": 465,
  "try": 466,
  "!": 467,
  "problem": 468,
  "fa@@": 469,
  "man": 470,
  "ph@@": 471,
  "before": 472,
  "am": 473,
  "V@@": 474,
  "body": 475,
  "co@@": 476,
  "plan@@": 477,
  "start": 478,
  "en": 479,
  "and@@": 480,
  "cre@@": 481,
  "came": 482,
  "part": 483,
  "better": 484,
  "do@@": 485,
  "next": 486,
  "ces": 487,
  "wi@@": 488,
  "ments": 489,
  "ve@@": 490,
  "b": 491,
  "ps": 492,
  "never": 493,
  "technology": 494,
  "him": 495,
  "ever": 496,
  "ep@@": 497,
  "whole": 498,
  "again": 499,
  "ta@@": 500,
  "pl@@": 501,
  "How": 502,
  "looking": 503,
  "gr@@": 504,
  "long": 505,
  "exp@@": 506,
  "system": 507,
  "still": 508,
  "Because": 509,
  "po@@": 510,
  "man@@": 511,
  "no@@": 512,
  "might": 513,
  "mi@@": 514,
  "ars": 515,
  "point": 516,
  "ling": 517,
  "ga@@": 518,
  "together": 519,
  "comes": 520,
  "each": 521,
  "few": 522,
  "too": 523,
  "ked": 524,
  "sho@@": 525,
  "done": 526,
  "ru@@": 527,
  "When": 528,
  "question": 529,
  "fl@@": 530,
  "tly": 531,
  "’": 532,
  "col@@": 533,
  "less": 534,
  "over@@": 535,
  "million": 536,
  "love": 537,
  "ke@@": 538,
  "doesn": 539,
  "wing": 540,
  "found": 541,
  "age": 542,
  "the@@": 543,
  "between": 544,
  "lea@@": 545,
  "brain": 546,
  "ble": 547,
  "fac@@": 548,
  "da@@": 549,
  "oo@@": 550,
  "ving": 551,
  "tri@@": 552,
  "design": 553,
  "ely": 554,
  "Thank": 555,
  "10": 556,
  "ative": 557,
  "real": 558,
  "ial": 559,
  "ach": 560,
  "lu@@": 561,
  "ver": 562,
  "away": 563,
  "children": 564,
  "sol@@": 565,
  "ins": 566,
  "ess@@": 567,
  "ing@@": 568,
  "wanted": 569,
  "call": 570,
  "wh@@": 571,
  "sec@@": 572,
  "lin@@": 573,
  "ws": 574,
  "person": 575,
  "3@@": 576,
  "den@@": 577,
  "light": 578,
  "understand": 579,
  "mar@@": 580,
  "app@@": 581,
  "ood": 582,
  "ect": 583,
  "ities": 584,
  "ters": 585,
  "fin@@": 586,
  "ry": 587,
  "coming": 588,
  "OK": 589,
  "four": 590,
  "ther": 591,
  "Talk": 592,
  "bl@@": 593,
  "pri@@": 594,
  "sts": 595,
  "mil@@": 596,
  "por@@": 597,
  "sta@@": 598,
  "el": 599,
  "live": 600,
  "ill": 601,
  "ans": 602,
  "ates": 603,
  "ther@@": 604,
  "kids": 605,
  "working": 606,
  "trying": 607,
  "est@@": 608,
  "Africa": 609,
  "pla@@": 610,
  "mat@@": 611,
  "always": 612,
  ",000": 613,
  "ven@@": 614,
  ".@@": 615,
  "Here": 616,
  "com@@": 617,
  "may": 618,
  "stuff": 619,
  "ically": 620,
  "Th@@": 621,
  "ff@@": 622,
  "cu@@": 623,
  "ong": 624,
  "cap@@": 625,
  "thinking": 626,
  "gs": 627,
  "Transcript": 628,
  "Subtitles": 629,
  "money": 630,
  "tic@@": 631,
  "tu@@": 632,
  "sense": 633,
  "side": 634,
  "example": 635,
  "mp@@": 636,
  "believe": 637,
  "times": 638,
  "produc@@": 639,
  "using": 640,
  "everything": 641,
  "ses": 642,
  "ges": 643,
  "ful": 644,
  "One": 645,
  "quite": 646,
  "sub@@": 647,
  "4@@": 648,
  "wn": 649,
  "took": 650,
  "ors": 651,
  "mor@@": 652,
  "says": 653,
  "pu@@": 654,
  "power": 655,
  "energy": 656,
  "tive": 657,
  "ste@@": 658,
  "ten@@": 659,
  "making": 660,
  "ba@@": 661,
  "men@@": 662,
  "ie@@": 663,
  "ite": 664,
  "ho@@": 665,
  "These": 666,
  "enough": 667,
  "jo@@": 668,
  "interesting": 669,
  "5@@": 670,
  "dollars": 671,
  "data": 672,
  "ze": 673,
  "country": 674,
  "ion": 675,
  "school": 676,
  "building": 677,
  "five": 678,
  "uc@@": 679,
  "ach@@": 680,
  "mis@@": 681,
  "land": 682,
  "getting": 683,
  "happened": 684,
  "pp@@": 685,
  "sk@@": 686,
  "not@@": 687,
  "food": 688,
  "feel": 689,
  "ati@@": 690,
  "form": 691,
  "all@@": 692,
  "ging": 693,
  "create": 694,
  "ning": 695,
  "help": 696,
  "sing": 697,
  "any@@": 698,
  "der@@": 699,
  "iz@@": 700,
  "ones": 701,
  "My": 702,
  "acti@@": 703,
  "hel@@": 704,
  "maybe": 705,
  "space": 706,
  "Ma@@": 707,
  "oun@@": 708,
  "second": 709,
  "No": 710,
  "number": 711,
  "19@@": 712,
  "probably": 713,
  "um": 714,
  "r": 715,
  "ia": 716,
  "Earth": 717,
  "j@@": 718,
  "She": 719,
  "sur@@": 720,
  "ture": 721,
  "...": 722,
  "art": 723,
  "ick": 724,
  "har@@": 725,
  "20": 726,
  "es@@": 727,
  "tic": 728,
  "future": 729,
  "et@@": 730,
  "talking": 731,
  "50": 732,
  "tor": 733,
  "au@@": 734,
  "anything": 735,
  "small": 736,
  "desig@@": 737,
  "seen": 738,
  "line": 739,
  "possible": 740,
  "ask": 741,
  "gi@@": 742,
  "means": 743,
  "brea@@": 744,
  "ici@@": 745,
  "book": 746,
  "dri@@": 747,
  "il": 748,
  "left": 749,
  "gener@@": 750,
  "ig@@": 751,
  "wed": 752,
  "move": 753,
  "5": 754,
  "tru@@": 755,
  "stor@@": 756,
  "set": 757,
  "top": 758,
  "cul@@": 759,
  "per": 760,
  "cur@@": 761,
  "become": 762,
  "f": 763,
  "An@@": 764,
  "pretty": 765,
  "ob@@": 766,
  "son": 767,
  "ore": 768,
  "ability": 769,
  "play": 770,
  "sive": 771,
  "dic@@": 772,
  "best": 773,
  "build": 774,
  "information": 775,
  "organ@@": 776,
  "up@@": 777,
  "act": 778,
  "ways": 779,
  "ideas": 780,
  "half": 781,
  "ned": 782,
  "simple": 783,
  "tel@@": 784,
  "her@@": 785,
  "science": 786,
  "picture": 787,
  "ously": 788,
  "room": 789,
  "cr@@": 790,
  "sions": 791,
  "ness": 792,
  "sor@@": 793,
  "ner": 794,
  "ster": 795,
  "under@@": 796,
  "planet": 797,
  "Wh@@": 798,
  "happen": 799,
  "Why": 800,
  "cla@@": 801,
  "ree@@": 802,
  "ster@@": 803,
  "coun@@": 804,
  "go@@": 805,
  "iting": 806,
  "ger": 807,
  "connec@@": 808,
  "prot@@": 809,
  "mu@@": 810,
  "though": 811,
  "without": 812,
  "ition": 813,
  "6@@": 814,
  "sen@@": 815,
  "goes": 816,
  "us@@": 817,
  "ali@@": 818,
  "days": 819,
  "ack": 820,
  "dra@@": 821,
  "sup@@": 822,
  "Ch@@": 823,
  "In@@": 824,
  "makes": 825,
  "7@@": 826,
  "across": 827,
  "else": 828,
  "high@@": 829,
  "ard": 830,
  "dre@@": 831,
  "war@@": 832,
  "stu@@": 833,
  "Y@@": 834,
  "ju@@": 835,
  "works": 836,
  "problems": 837,
  "U@@": 838,
  "bad": 839,
  "saying": 840,
  "ish": 841,
  "bro@@": 842,
  "countries": 843,
  "sh": 844,
  "God": 845,
  "sel@@": 846,
  "Let": 847,
  "having": 848,
  "tal@@": 849,
  "ie": 850,
  "pas@@": 851,
  "du@@": 852,
  "re": 853,
  "oon": 854,
  "off@@": 855,
  "such": 856,
  "wal@@": 857,
  "ea@@": 858,
  "equ@@": 859,
  "case": 860,
  "cho@@": 861,
  "ship": 862,
  "ged": 863,
  "sig@@": 864,
  "spec@@": 865,
  "saw": 866,
  "wr@@": 867,
  "ital": 868,
  "guy": 869,
  "cen@@": 870,
  "All": 871,
  "head": 872,
  "India": 873,
  "billion": 874,
  "cel@@": 875,
  "ber@@": 876,
  "mon@@": 877,
  "ca@@": 878,
  "tur@@": 879,
  "phys@@": 880,
  "respon@@": 881,
  "des": 882,
  "happens": 883,
  "universe": 884,
  "lar@@": 885,
  "ied": 886,
  "mind": 887,
  "basically": 888,
  "ger@@": 889,
  "vity": 890,
  "ran@@": 891,
  "home": 892,
  "fu@@": 893,
  "told": 894,
  "ght": 895,
  "computer": 896,
  "looks": 897,
  "ents": 898,
  "nature": 899,
  "ed@@": 900,
  "process": 901,
  "reason": 902,
  "ys": 903,
  "ns": 904,
  "women": 905,
  "direc@@": 906,
  "Al@@": 907,
  "nu@@": 908,
  "2": 909,
  "face": 910,
  "dro@@": 911,
  "both": 912,
  "business": 913,
  "history": 914,
  "inf@@": 915,
  "bel@@": 916,
  "city": 917,
  "project": 918,
  "beautiful": 919,
  "form@@": 920,
  "turn": 921,
  "trans@@": 922,
  "living": 923,
  "sion@@": 924,
  "mental": 925,
  "care": 926,
  "nothing": 927,
  "ist@@": 928,
  "hard": 929,
  "u": 930,
  "experience": 931,
  "sure": 932,
  "ace": 933,
  "car": 934,
  "bring": 935,
  "ir": 936,
  "hand": 937,
  "serv@@": 938,
  "ye@@": 939,
  "child": 940,
  "later": 941,
  "ens": 942,
  "six": 943,
  "cra@@": 944,
  "places": 945,
  "dis@@": 946,
  "species": 947,
  "moment": 948,
  "social": 949,
  "while": 950,
  "music": 951,
  "already": 952,
  "Li@@": 953,
  "asked": 954,
  "tit@@": 955,
  "stre@@": 956,
  "hu@@": 957,
  "ently": 958,
  "tion@@": 959,
  "7": 960,
  "within": 961,
  "bor@@": 962,
  "As": 963,
  "fic": 964,
  "hope": 965,
  "far": 966,
  "heard": 967,
  "For": 968,
  "ately": 969,
  "ited": 970,
  "everybody": 971,
  "high": 972,
  "almost": 973,
  "true": 974,
  "succ@@": 975,
  "ices": 976,
  "New": 977,
  "ep": 978,
  "matter": 979,
  "view": 980,
  "lives": 981,
  "read": 982,
  "anc@@": 983,
  "answer": 984,
  "vel@@": 985,
  "oil": 986,
  "ni@@": 987,
  "men": 988,
  "&#91;": 989,
  "&#93;": 990,
  "om": 991,
  "shi@@": 992,
  "ily": 993,
  "ven": 994,
  "ag@@": 995,
  "ders": 996,
  "ren@@": 997,
  "whether": 998,
  "keep": 999,
  "mother": 1000,
  "del@@": 1001,
  "ond": 1002,
  "looked": 1003,
  "ei@@": 1004,
  "itself": 1005,
  "inside": 1006,
  "single": 1007,
  "develop@@": 1008,
  "4": 1009,
  "teach@@": 1010,
  "op": 1011,
  "speci@@": 1012,
  "yet": 1013,
  "3": 1014,
  "af@@": 1015,
  "global": 1016,
  "200@@": 1017,
  "ational": 1018,
  "couple": 1019,
  "100": 1020,
  "built": 1021,
  "mb@@": 1022,
  "wer": 1023,
  "family": 1024,
  "hy@@": 1025,
  "sch@@": 1026,
  "9": 1027,
  "vol@@": 1028,
  "enc@@": 1029,
  "United": 1030,
  "wrong": 1031,
  "some@@": 1032,
  "win@@": 1033,
  "air": 1034,
  "Oh": 1035,
  "arti@@": 1036,
  "once": 1037,
  "stri@@": 1038,
  "sli@@": 1039,
  "0s": 1040,
  "photograp@@": 1041,
  "ality": 1042,
  "e-@@": 1043,
  "stories": 1044,
  "learn": 1045,
  "ich": 1046,
  "kinds": 1047,
  "somebody": 1048,
  "pol@@": 1049,
  "piece": 1050,
  "dr@@": 1051,
  "dent": 1052,
  "gets": 1053,
  "ator": 1054,
  "9@@": 1055,
  "exc@@": 1056,
  "America": 1057,
  "fe": 1058,
  "group": 1059,
  "evi@@": 1060,
  "Then": 1061,
  "isn": 1062,
  "completely": 1063,
  "polit@@": 1064,
  "o-@@": 1065,
  "ont@@": 1066,
  "under": 1067,
  "ences": 1068,
  "house": 1069,
  "happy": 1070,
  "deci@@": 1071,
  "community": 1072,
  "must": 1073,
  "bly": 1074,
  "30": 1075,
  "gla@@": 1076,
  "appro@@": 1077,
  "months": 1078,
  "table": 1079,
  "animals": 1080,
  "model": 1081,
  "cat@@": 1082,
  "run": 1083,
  "action": 1084,
  "ization": 1085,
  "vo@@": 1086,
  "amazing": 1087,
  "young": 1088,
  "order": 1089,
  "ized": 1090,
  "cal@@": 1091,
  "size": 1092,
  "word": 1093,
  "tin@@": 1094,
  "States": 1095,
  "remember": 1096,
  "dig@@": 1097,
  "until": 1098,
  "video": 1099,
  "dy": 1100,
  "pur@@": 1101,
  "war": 1102,
  "cep@@": 1103,
  "rather": 1104,
  "often": 1105,
  "bur@@": 1106,
  "health": 1107,
  "taking": 1108,
  "imagine": 1109,
  "itive": 1110,
  "ming": 1111,
  "engin@@": 1112,
  "lar": 1113,
  "challen@@": 1114,
  "dies": 1115,
  "company": 1116,
  "open": 1117,
  "loc@@": 1118,
  "minutes": 1119,
  "education": 1120,
  "ari@@": 1121,
  "feet": 1122,
  "De@@": 1123,
  "figure": 1124,
  "ghts": 1125,
  "incre@@": 1126,
  "ile": 1127,
  "public": 1128,
  "ker": 1129,
  "name": 1130,
  "ched": 1131,
  "ay": 1132,
  "sed": 1133,
  "cop@@": 1134,
  "large": 1135,
  "market": 1136,
  "outh": 1137,
  "issu@@": 1138,
  "ases": 1139,
  "ight": 1140,
  "questions": 1141,
  "exactly": 1142,
  "na@@": 1143,
  "pul@@": 1144,
  "individu@@": 1145,
  "t-@@": 1146,
  "ft": 1147,
  "ground": 1148,
  "vely": 1149,
  "wasn": 1150,
  "0@@": 1151,
  "ist": 1152,
  "ourselves": 1153,
  "words": 1154,
  "aring": 1155,
  "myself": 1156,
  "job": 1157,
  "taken": 1158,
  "won": 1159,
  "along": 1160,
  "wonderful": 1161,
  "wards": 1162,
  "8": 1163,
  "chan@@": 1164,
  "happening": 1165,
  "tual": 1166,
  "tting": 1167,
  "hun@@": 1168,
  "spe@@": 1169,
  "tw@@": 1170,
  "S": 1171,
  "ious": 1172,
  "night": 1173,
  "appe@@": 1174,
  "lots": 1175,
  "che@@": 1176,
  "lec@@": 1177,
  "person@@": 1178,
  "ev@@": 1179,
  "state": 1180,
  "since": 1181,
  "cau@@": 1182,
  "structure": 1183,
  "ared": 1184,
  "stop": 1185,
  "turns": 1186,
  "fol@@": 1187,
  "society": 1188,
  "whatever": 1189,
  "area": 1190,
  "particular": 1191,
  "port": 1192,
  "iti@@": 1193,
  "someone": 1194,
  "pic@@": 1195,
  "han@@": 1196,
  "decided": 1197,
  "star@@": 1198,
  "bs": 1199,
  "fish": 1200,
  "resul@@": 1201,
  "American": 1202,
  "bil@@": 1203,
  "experi@@": 1204,
  "language": 1205,
  "cli@@": 1206,
  "cam@@": 1207,
  "ide@@": 1208,
  "electr@@": 1209,
  "level": 1210,
  "tor@@": 1211,
  "ocean": 1212,
  "couldn": 1213,
  "moving": 1214,
  "out@@": 1215,
  "cir@@": 1216,
  "free": 1217,
  "government": 1218,
  "front": 1219,
  "cells": 1220,
  "guys": 1221,
  "knew": 1222,
  "tors": 1223,
  "char@@": 1224,
  "pi@@": 1225,
  "least": 1226,
  "ism": 1227,
  "vers@@": 1228,
  "disease": 1229,
  "woman": 1230,
  "surface": 1231,
  "clos@@": 1232,
  "tually": 1233,
  "century": 1234,
  "ast": 1235,
  "St@@": 1236,
  "huge": 1237,
  "sible": 1238,
  "meas@@": 1239,
  "outside": 1240,
  "Yeah": 1241,
  "hear": 1242,
  "mm@@": 1243,
  "game": 1244,
  "volved": 1245,
  "expl@@": 1246,
  "B": 1247,
  "clu@@": 1248,
  "20@@": 1249,
  "seven": 1250,
  "created": 1251,
  "inven@@": 1252,
  "row": 1253,
  "allo@@": 1254,
  "fam@@": 1255,
  "sci@@": 1256,
  "ists": 1257,
  "Ar@@": 1258,
  "tation": 1259,
  "takes": 1260,
  "ple@@": 1261,
  "medi@@": 1262,
  "yed": 1263,
  "squ@@": 1264,
  "control": 1265,
  "ined": 1266,
  "arly": 1267,
  "natural": 1268,
  "net@@": 1269,
  "difference": 1270,
  "mbers": 1271,
  "expla@@": 1272,
  "hours": 1273,
  "cont@@": 1274,
  "fil@@": 1275,
  "gen": 1276,
  "became": 1277,
  "depen@@": 1278,
  "cost": 1279,
  "ures": 1280,
  "tional": 1281,
  "cer@@": 1282,
  "8@@": 1283,
  "ching": 1284,
  "d-@@": 1285,
  "beginning": 1286,
  "sound": 1287,
  "hor@@": 1288,
  "10@@": 1289,
  "known": 1290,
  "kel@@": 1291,
  "fun@@": 1292,
  "past": 1293,
  "Internet": 1294,
  "contin@@": 1295,
  "bri@@": 1296,
  "ook": 1297,
  "research": 1298,
  "ome": 1299,
  "news": 1300,
  "even@@": 1301,
  "y-@@": 1302,
  "ear@@": 1303,
  "0,000": 1304,
  "ward": 1305,
  "phone": 1306,
  "ounds": 1307,
  "collec@@": 1308,
  "kers": 1309,
  "pati@@": 1310,
  "land@@": 1311,
  "int": 1312,
  "gin@@": 1313,
  "ele@@": 1314,
  "worked": 1315,
  "va@@": 1316,
  "scale": 1317,
  "requ@@": 1318,
  "obvi@@": 1319,
  "parti@@": 1320,
  "1": 1321,
  "themselves": 1322,
  "tou@@": 1323,
  "dence": 1324,
  "inve@@": 1325,
  "acy": 1326,
  "nam@@": 1327,
  "6": 1328,
  "against": 1329,
  "stic": 1330,
  "students": 1331,
  "fer@@": 1332,
  "Mar@@": 1333,
  "D": 1334,
  "ats": 1335,
  "ale": 1336,
  "stry": 1337,
  "fra@@": 1338,
  "certain": 1339,
  "ful@@": 1340,
  "shows": 1341,
  "turned": 1342,
  "died": 1343,
  "gone": 1344,
  "air@@": 1345,
  "hed": 1346,
  "ey": 1347,
  "mot@@": 1348,
  "third": 1349,
  "Is": 1350,
  "seeing": 1351,
  "wat@@": 1352,
  "ue": 1353,
  "reas@@": 1354,
  "Au@@": 1355,
  "ners": 1356,
  "quickly": 1357,
  "tle": 1358,
  "cancer": 1359,
  "machine": 1360,
  "entire": 1361,
  "environment": 1362,
  "based": 1363,
  "Do": 1364,
  "heart": 1365,
  "arch@@": 1366,
  "bed": 1367,
  "audi@@": 1368,
  "biolog@@": 1369,
  "mov@@": 1370,
  "buy": 1371,
  "pot@@": 1372,
  "els": 1373,
  "ties": 1374,
  "interested": 1375,
  "religi@@": 1376,
  "ape": 1377,
  "sted": 1378,
  "needs": 1379,
  "ected": 1380,
  "unch": 1381,
  "ton": 1382,
  "consi@@": 1383,
  "medic@@": 1384,
  "bar@@": 1385,
  "ound@@": 1386,
  "wil@@": 1387,
  "finally": 1388,
  "em": 1389,
  "China": 1390,
  "roo@@": 1391,
  "roc@@": 1392,
  "norm@@": 1393,
  "everyone": 1394,
  "ben@@": 1395,
  "ple": 1396,
  "common": 1397,
  "sometimes": 1398,
  "Or": 1399,
  "wel@@": 1400,
  "perhaps": 1401,
  "kil@@": 1402,
  "thousands": 1403,
  "sic": 1404,
  "key": 1405,
  "scienti@@": 1406,
  "gave": 1407,
  "enti@@": 1408,
  "Nor@@": 1409,
  "struc@@": 1410,
  "CA": 1411,
  "ise": 1412,
  "dev@@": 1413,
  "eyes": 1414,
  "learned": 1415,
  "thy": 1416,
  "early": 1417,
  "study": 1418,
  "dist@@": 1419,
  "od": 1420,
  "rest": 1421,
  "population": 1422,
  "wit@@": 1423,
  "alize": 1424,
  "ow": 1425,
  "leave": 1426,
  "La@@": 1427,
  "share": 1428,
  "Re@@": 1429,
  "deal": 1430,
  "culture": 1431,
  "close": 1432,
  "test": 1433,
  "lim@@": 1434,
  "fir@@": 1435,
  "amount": 1436,
  "others": 1437,
  "emp@@": 1438,
  "evolution": 1439,
  "York": 1440,
  "parts": 1441,
  "ith": 1442,
  "press@@": 1443,
  "image": 1444,
  "systems": 1445,
  "projec@@": 1446,
  "ell": 1447,
  "maj@@": 1448,
  "15": 1449,
  "grow": 1450,
  "consu@@": 1451,
  "posed": 1452,
  "instead": 1453,
  "ater": 1454,
  "ris@@": 1455,
  "terms": 1456,
  "ire": 1457,
  "middle": 1458,
  "dan@@": 1459,
  "ost": 1460,
  "cell": 1461,
  "tical": 1462,
  "ey@@": 1463,
  "bre@@": 1464,
  "os": 1465,
  "ban@@": 1466,
  "film": 1467,
  "relation@@": 1468,
  "tot@@": 1469,
  "disc@@": 1470,
  "peri@@": 1471,
  "rea@@": 1472,
  "jour@@": 1473,
  "imp@@": 1474,
  "far@@": 1475,
  "survi@@": 1476,
  "ub@@": 1477,
  "began": 1478,
  "nor@@": 1479,
  "ced": 1480,
  "og@@": 1481,
  "friends": 1482,
  "our@@": 1483,
  "recor@@": 1484,
  "den": 1485,
  "Yes": 1486,
  "pres@@": 1487,
  "Right": 1488,
  "wan@@": 1489,
  "oor@@": 1490,
  "charac@@": 1491,
  "visu@@": 1492,
  "walk": 1493,
  "innov@@": 1494,
  "ill@@": 1495,
  "heal@@": 1496,
  "program": 1497,
  "cha@@": 1498,
  "aff@@": 1499,
  "cannot": 1500,
  "oper@@": 1501,
  "oot": 1502,
  "Okay": 1503,
  "id@@": 1504,
  "din@@": 1505,
  "miles": 1506,
  "powerful": 1507,
  "cle@@": 1508,
  "fic@@": 1509,
  "40": 1510,
  "lap@@": 1511,
  "ten": 1512,
  "self-@@": 1513,
  "bir@@": 1514,
  "gar@@": 1515,
  "dru@@": 1516,
  "At": 1517,
  "ology": 1518,
  "open@@": 1519,
  "ase": 1520,
  "fun": 1521,
  "grap@@": 1522,
  "stand@@": 1523,
  "eight": 1524,
  "black": 1525,
  "given": 1526,
  "books": 1527,
  "my@@": 1528,
  "cle": 1529,
  "communic@@": 1530,
  "ames": 1531,
  "mp": 1532,
  "Just": 1533,
  "ining": 1534,
  "presen@@": 1535,
  "vement": 1536,
  "longer": 1537,
  "changed": 1538,
  "People": 1539,
  "vir@@": 1540,
  "sy@@": 1541,
  "dar@@": 1542,
  "ches": 1543,
  "zed": 1544,
  "tain": 1545,
  "ils": 1546,
  "vil@@": 1547,
  "mer@@": 1548,
  "att@@": 1549,
  "anti@@": 1550,
  "stra@@": 1551,
  "theory": 1552,
  "hands": 1553,
  "typ@@": 1554,
  "scre@@": 1555,
  "Ne@@": 1556,
  "force": 1557,
  "sequ@@": 1558,
  "versity": 1559,
  "fly": 1560,
  "Ha@@": 1561,
  "effec@@": 1562,
  "proc@@": 1563,
  "predic@@": 1564,
  "argu@@": 1565,
  "stan@@": 1566,
  "00": 1567,
  "stage": 1568,
  "either": 1569,
  "Z@@": 1570,
  "national": 1571,
  "defin@@": 1572,
  "flo@@": 1573,
  "easy": 1574,
  "yourself": 1575,
  "ment@@": 1576,
  "alle@@": 1577,
  "descri@@": 1578,
  "Not": 1579,
  "ima@@": 1580,
  "die": 1581,
  "incredible": 1582,
  "map": 1583,
  "Afr@@": 1584,
  "simply": 1585,
  "mic": 1586,
  "osp@@": 1587,
  "inst@@": 1588,
  "vis@@": 1589,
  "ped": 1590,
  "mean@@": 1591,
  "ound": 1592,
  "Con@@": 1593,
  "inclu@@": 1594,
  "tried": 1595,
  "C": 1596,
  "full": 1597,
  "lan@@": 1598,
  "ads": 1599,
  "sour@@": 1600,
  "res": 1601,
  "ants": 1602,
  "spre@@": 1603,
  "can@@": 1604,
  "dge": 1605,
  "knowledge": 1606,
  "acc@@": 1607,
  "human@@": 1608,
  "ologi@@": 1609,
  "forward": 1610,
  "bal@@": 1611,
  "spir@@": 1612,
  "cy@@": 1613,
  "brought": 1614,
  "regi@@": 1615,
  "ought": 1616,
  "tures": 1617,
  "ney": 1618,
  "DNA": 1619,
  "behind": 1620,
  ",@@": 1621,
  "met": 1622,
  "cut": 1623,
  "ordinary": 1624,
  "center": 1625,
  "friend": 1626,
  "z": 1627,
  "uni@@": 1628,
  "team": 1629,
  "ots": 1630,
  "dimen@@": 1631,
  "difficult": 1632,
  "sting": 1633,
  "poor": 1634,
  "spend": 1635,
  "hon@@": 1636,
  "eat": 1637,
  "nec@@": 1638,
  "Some": 1639,
  "architec@@": 1640,
  "indu@@": 1641,
  "father": 1642,
  "cro@@": 1643,
  "ly@@": 1644,
  "inten@@": 1645,
  "intelligen@@": 1646,
  "week": 1647,
  "oe@@": 1648,
  "fur@@": 1649,
  "ur": 1650,
  "back@@": 1651,
  "self": 1652,
  "To": 1653,
  "resour@@": 1654,
  "atten@@": 1655,
  "gic": 1656,
  "kes": 1657,
  "sever@@": 1658,
  "situ@@": 1659,
  "mathemat@@": 1660,
  "certain@@": 1661,
  "wouldn": 1662,
  "ool": 1663,
  "surpri@@": 1664,
  "bacter@@": 1665,
  "starting": 1666,
  "dom": 1667,
  "Af@@": 1668,
  "wer@@": 1669,
  "resi@@": 1670,
  "death": 1671,
  "vari@@": 1672,
  "realized": 1673,
  "part@@": 1674,
  "fortun@@": 1675,
  "prin@@": 1676,
  "ingly": 1677,
  "clear": 1678,
  "write": 1679,
  "dom@@": 1680,
  "U.S.": 1681,
  "vie@@": 1682,
  "disp@@": 1683,
  "crit@@": 1684,
  "cept": 1685,
  "ole": 1686,
  "pt": 1687,
  "morning": 1688,
  "gives": 1689,
  "zer@@": 1690,
  "value": 1691,
  "needed": 1692,
  "sea": 1693,
  "hold": 1694,
  "changes": 1695,
  "bottom": 1696,
  "opportunity": 1697,
  "sla@@": 1698,
  "present": 1699,
  "understanding": 1700,
  "cou@@": 1701,
  "pan@@": 1702,
  "Can": 1703,
  "coo@@": 1704,
  "provi@@": 1705,
  "climate": 1706,
  "top@@": 1707,
  "nice": 1708,
  "sibility": 1709,
  "belie@@": 1710,
  "usu@@": 1711,
  "growing": 1712,
  "pen@@": 1713,
  "solution": 1714,
  "extre@@": 1715,
  "wrote": 1716,
  "shape": 1717,
  "eer@@": 1718,
  "paper": 1719,
  "ah": 1720,
  "Ste@@": 1721,
  "during": 1722,
  "Gre@@": 1723,
  "weeks": 1724,
  "ian": 1725,
  "happiness": 1726,
  "mes": 1727,
  "parents": 1728,
  "cl@@": 1729,
  "emer@@": 1730,
  "learning": 1731,
  "humans": 1732,
  "elec@@": 1733,
  "ank": 1734,
  "T": 1735,
  "behavior": 1736,
  "technologies": 1737,
  "areas": 1738,
  "civi@@": 1739,
  "ky": 1740,
  "mes@@": 1741,
  "ox@@": 1742,
  "short": 1743,
  "sitting": 1744,
  "economy": 1745,
  "animal": 1746,
  "economic": 1747,
  "auth@@": 1748,
  "yp@@": 1749,
  "media": 1750,
  "No@@": 1751,
  "anybody": 1752,
  "ast@@": 1753,
  "ish@@": 1754,
  "ential": 1755,
  "ene@@": 1756,
  "poin@@": 1757,
  "sm@@": 1758,
  "func@@": 1759,
  "talked": 1760,
  "moder@@": 1761,
  "ny": 1762,
  "shed": 1763,
  "year-@@": 1764,
  "spent": 1765,
  "compe@@": 1766,
  "step": 1767,
  "every@@": 1768,
  "valu@@": 1769,
  "discovered": 1770,
  "field": 1771,
  "running": 1772,
  "ner@@": 1773,
  "eg@@": 1774,
  "follo@@": 1775,
  "lock": 1776,
  "recogni@@": 1777,
  "lost": 1778,
  "ang@@": 1779,
  "literally": 1780,
  "knows": 1781,
  "absolutely": 1782,
  "anal@@": 1783,
  "bra@@": 1784,
  "growth": 1785,
  "tradi@@": 1786,
  "objec@@": 1787,
  "sia": 1788,
  "nuclear": 1789,
  "Se@@": 1790,
  "viol@@": 1791,
  "ath": 1792,
  "radi@@": 1793,
  "ut": 1794,
  "white": 1795,
  "pay": 1796,
  "Su@@": 1797,
  "super@@": 1798,
  "Some@@": 1799,
  "Fran@@": 1800,
  "telling": 1801,
  "gger": 1802,
  "ket": 1803,
  "complex": 1804,
  "average": 1805,
  "wers": 1806,
  "produce": 1807,
  "watch": 1808,
  "tage": 1809,
  "psych@@": 1810,
  "thank": 1811,
  "Ro@@": 1812,
  "ief": 1813,
  "eling": 1814,
  "mag@@": 1815,
  "susta@@": 1816,
  "fast": 1817,
  "rou@@": 1818,
  "carb@@": 1819,
  "images": 1820,
  "exam@@": 1821,
  "rules": 1822,
  "green": 1823,
  "pictures": 1824,
  "econom@@": 1825,
  "seems": 1826,
  "galax@@": 1827,
  "doc@@": 1828,
  "fla@@": 1829,
  "small@@": 1830,
  "born": 1831,
  "lease": 1832,
  "pat@@": 1833,
  "ref@@": 1834,
  "moun@@": 1835,
  "ken": 1836,
  "foo@@": 1837,
  "cities": 1838,
  "iden@@": 1839,
  "hol@@": 1840,
  "los@@": 1841,
  "developing": 1842,
  "compassion": 1843,
  "essenti@@": 1844,
  "hop@@": 1845,
  "Our": 1846,
  "sugge@@": 1847,
  "ush": 1848,
  "osphere": 1849,
  "advan@@": 1850,
  "ot": 1851,
  "scientists": 1852,
  "mer": 1853,
  "kin@@": 1854,
  "terri@@": 1855,
  "ools": 1856,
  "Every@@": 1857,
  "World": 1858,
  "pattern": 1859,
  "focus": 1860,
  "neigh@@": 1861,
  "On": 1862,
  "English": 1863,
  "reality": 1864,
  "prof@@": 1865,
  "ird": 1866,
  "tools": 1867,
  "ber": 1868,
  "begin": 1869,
  "que": 1870,
  "vail@@": 1871,
  "hundre@@": 1872,
  "color": 1873,
  "ths": 1874,
  "local": 1875,
  "non-@@": 1876,
  "icans": 1877,
  "construc@@": 1878,
  "25": 1879,
  "mers": 1880,
  "computers": 1881,
  "cip@@": 1882,
  "marke@@": 1883,
  "millions": 1884,
  "fig@@": 1885,
  "arm": 1886,
  "girl": 1887,
  "haven": 1888,
  "ended": 1889,
  "r.": 1890,
  "low@@": 1891,
  "gro@@": 1892,
  "generation": 1893,
  "blue": 1894,
  "icul@@": 1895,
  "ron@@": 1896,
  "illi@@": 1897,
  "board": 1898,
  "speak": 1899,
  "extra@@": 1900,
  "moved": 1901,
  "Chris": 1902,
  "companies": 1903,
  "ik@@": 1904,
  "fied": 1905,
  "eas@@": 1906,
  "Par@@": 1907,
  "Bo@@": 1908,
  "inv@@": 1909,
  "thro@@": 1910,
  "syn@@": 1911,
  "mas@@": 1912,
  "funda@@": 1913,
  "changing": 1914,
  "condi@@": 1915,
  "felt": 1916,
  "cool": 1917,
  "199@@": 1918,
  "60": 1919,
  "Ex@@": 1920,
  "mal@@": 1921,
  "bes": 1922,
  "aps": 1923,
  "experiment": 1924,
  "Le@@": 1925,
  "institu@@": 1926,
  "graph@@": 1927,
  "giving": 1928,
  "univers@@": 1929,
  "wood": 1930,
  "ler": 1931,
  "Europ@@": 1932,
  "press": 1933,
  "duc@@": 1934,
  "deca@@": 1935,
  "mater@@": 1936,
  "wind": 1937,
  "sha@@": 1938,
  "dou@@": 1939,
  "incredi@@": 1940,
  "sage": 1941,
  "To@@": 1942,
  "sten": 1943,
  "spea@@": 1944,
  "l-@@": 1945,
  "ales": 1946,
  "organis@@": 1947,
  "differ@@": 1948,
  "kno@@": 1949,
  "12": 1950,
  "gel@@": 1951,
  "da": 1952,
  "reduc@@": 1953,
  "ili@@": 1954,
  "buil@@": 1955,
  "ably": 1956,
  "eer": 1957,
  "st-@@": 1958,
  "trac@@": 1959,
  "ink": 1960,
  "ines": 1961,
  "vin@@": 1962,
  "yer": 1963,
  "compu@@": 1964,
  "smar@@": 1965,
  "ford": 1966,
  "ange": 1967,
  "uses": 1968,
  "val@@": 1969,
  "Mars": 1970,
  "continu@@": 1971,
  "ping": 1972,
  "represen@@": 1973,
  "tain@@": 1974,
  "ican": 1975,
  "gir@@": 1976,
  "onds": 1977,
  "stand": 1978,
  "uck": 1979,
  "Ge@@": 1980,
  "sle@@": 1981,
  "oli@@": 1982,
  "hand@@": 1983,
  "ans@@": 1984,
  "P": 1985,
  "type": 1986,
  "contro@@": 1987,
  "Car@@": 1988,
  "minu@@": 1989,
  "grou@@": 1990,
  "object": 1991,
  "itu@@": 1992,
  "Jap@@": 1993,
  "model@@": 1994,
  "len@@": 1995,
  "thers": 1996,
  "ma": 1997,
  "let@@": 1998,
  "impro@@": 1999,
  "tec@@": 2000,
  "effect": 2001,
  "enga@@": 2002,
  "jec@@": 2003,
  "tom@@": 2004,
  "prom@@": 2005,
  "transp@@": 2006,
  "Com@@": 2007,
  "stro@@": 2008,
  "met@@": 2009,
  "progra@@": 2010,
  "use@@": 2011,
  "meet": 2012,
  "im": 2013,
  "aren": 2014,
  "olog@@": 2015,
  "door": 2016,
  "bat@@": 2017,
  "ject": 2018,
  "gine": 2019,
  "ban": 2020,
  "ome@@": 2021,
  "fr@@": 2022,
  "dat@@": 2023,
  "gene@@": 2024,
  "lage": 2025,
  "eth@@": 2026,
  "nific@@": 2027,
  "real@@": 2028,
  "Of": 2029,
  "rom@@": 2030,
  "dden": 2031,
  "11": 2032,
  "Bu@@": 2033,
  "Uni@@": 2034,
  "resp@@": 2035,
  "Me@@": 2036,
  "Ac@@": 2037,
  "tro@@": 2038,
  "ide": 2039,
  "software": 2040,
  "sky": 2041,
  "lear@@": 2042,
  "inc@@": 2043,
  "impact": 2044,
  "effici@@": 2045,
  "deta@@": 2046,
  "labor@@": 2047,
  "micro@@": 2048,
  "molecu@@": 2049,
  "Ph@@": 2050,
  "M": 2051,
  "V": 2052,
  "ams": 2053,
  "ions": 2054,
  "neg@@": 2055,
  "ste": 2056,
  "ause": 2057,
  "En@@": 2058,
  "origin@@": 2059,
  "late": 2060,
  "environ@@": 2061,
  "ys@@": 2062,
  "Pro@@": 2063,
  "favor@@": 2064,
  "multi@@": 2065,
  "hou@@": 2066,
  "cru@@": 2067,
  "80": 2068,
  "lon@@": 2069,
  "500": 2070,
  "esc@@": 2071,
  "tes": 2072,
  "ak@@": 2073,
  "pie@@": 2074,
  "av@@": 2075,
  "devel@@": 2076,
  "revolu@@": 2077,
  "ros@@": 2078,
  "perfect": 2079,
  "enor@@": 2080,
  "ium": 2081,
  "illu@@": 2082,
  "materi@@": 2083,
  "win": 2084,
  "curr@@": 2085,
  "dia": 2086,
  "term": 2087,
  "product": 2088,
  "Google": 2089,
  "she@@": 2090,
  "Ju@@": 2091,
  "zz@@": 2092,
  "igh@@": 2093,
  "beau@@": 2094,
  "Mi@@": 2095,
  "transform@@": 2096,
  "tem@@": 2097,
  "ut@@": 2098,
  "mber": 2099,
  "tal": 2100,
  "power@@": 2101,
  "Ta@@": 2102,
  "0-@@": 2103,
  "Chinese": 2104,
  "ran": 2105,
  "200": 2106,
  "ese": 2107,
  "chem@@": 2108,
  "robot": 2109,
  "enter@@": 2110,
  "code": 2111,
  "stat@@": 2112,
  "cri@@": 2113,
  "gge@@": 2114,
  "patter@@": 2115,
  "creat@@": 2116,
  "ce@@": 2117,
  "site": 2118,
  "hom@@": 2119,
  "oor": 2120,
  "ould": 2121,
  "tend": 2122,
  "18": 2123,
  "Un@@": 2124,
  "Be@@": 2125,
  "comm@@": 2126,
  "ybe": 2127,
  "Bra@@": 2128,
  "HIV": 2129,
  "spi@@": 2130,
  "temp@@": 2131,
  "Sa@@": 2132,
  "ta": 2133,
  "thous@@": 2134,
  "ak": 2135,
  "ick@@": 2136,
  "bot@@": 2137,
  "stop@@": 2138,
  "conf@@": 2139,
  "ony": 2140,
  "of@@": 2141,
  "ash@@": 2142,
  "democr@@": 2143,
  "camera": 2144,
  "govern@@": 2145,
  "ack@@": 2146,
  "G": 2147,
  "neur@@": 2148,
  "comple@@": 2149,
  "soci@@": 2150,
  "18@@": 2151,
  "bul@@": 2152,
  "dle": 2153,
  "emot@@": 2154,
  "H": 2155,
  "sten@@": 2156,
  "dia@@": 2157,
  "ind": 2158,
  "arth": 2159,
  "log@@": 2160,
  "machines": 2161,
  "fri@@": 2162,
  "introduc@@": 2163,
  "fle@@": 2164,
  "sti@@": 2165,
  "Bi@@": 2166,
  "sters": 2167,
  "Mo@@": 2168,
  "aling": 2169,
  "ready": 2170,
  "sens@@": 2171,
  "dec@@": 2172,
  "confer@@": 2173,
  "/": 2174,
  "student": 2175,
  "oud": 2176,
  "solu@@": 2177,
  "baby": 2178,
  "publi@@": 2179,
  "stitu@@": 2180,
  "Amer@@": 2181,
  "mark@@": 2182,
  "ton@@": 2183,
  "Hu@@": 2184,
  "gas": 2185,
  "tis@@": 2186,
  "ig": 2187,
  "Col@@": 2188,
  "ff": 2189,
  "Har@@": 2190,
  "Q@@": 2191,
  "David": 2192,
  "gh": 2193,
  "mmer": 2194,
  "onom@@": 2195,
  "deed": 2196,
  "virus": 2197,
  "Ho@@": 2198,
  "ware": 2199,
  "bom@@": 2200,
  "Char@@": 2201,
  "ator@@": 2202,
  "ages": 2203,
  "Si@@": 2204,
  "vers": 2205,
  "ul": 2206,
  "quot@@": 2207,
  "eld": 2208,
  "Mon@@": 2209,
  "standing": 2210,
  "TED@@": 2211,
  "la": 2212,
  "search": 2213,
  "een": 2214,
  "AIDS": 2215,
  "val": 2216,
  "perspec@@": 2217,
  "sul@@": 2218,
  "wis@@": 2219,
  "Brit@@": 2220,
  "cit@@": 2221,
  "tan@@": 2222,
  "ra": 2223,
  "dynam@@": 2224,
  "ust": 2225,
  "stic@@": 2226,
  "combin@@": 2227,
  "gal": 2228,
  "zing": 2229,
  "res@@": 2230,
  "foc@@": 2231,
  "educ@@": 2232,
  "commer@@": 2233,
  "Indi@@": 2234,
  "un": 2235,
  "commun@@": 2236,
  "simul@@": 2237,
  "lit@@": 2238,
  "ene": 2239,
  "ation@@": 2240,
  "For@@": 2241,
  "sing@@": 2242,
  "urs": 2243,
  "tar@@": 2244,
  "oom": 2245,
  "tech@@": 2246,
  "son@@": 2247,
  "priv@@": 2248,
  "On@@": 2249,
  "E": 2250,
  "tun@@": 2251,
  "O": 2252,
  "aria": 2253,
  "reg@@": 2254,
  "gor@@": 2255,
  "We@@": 2256,
  "rot@@": 2257,
  "itten": 2258,
  "stem": 2259,
  "mechan@@": 2260,
  "ama": 2261,
  "van@@": 2262,
  "sne@@": 2263,
  "hal@@": 2264,
  "Di@@": 2265,
  "dd@@": 2266,
  "Per@@": 2267,
  "crisis": 2268,
  "ering": 2269,
  "conflic@@": 2270,
  "bla@@": 2271,
  "fas@@": 2272,
  "fantast@@": 2273,
  "profes@@": 2274,
  "meth@@": 2275,
  "era": 2276,
  "net": 2277,
  "soc@@": 2278,
  "Cam@@": 2279,
  "bit@@": 2280,
  "agen@@": 2281,
  "symme@@": 2282,
  "divi@@": 2283,
  "vel": 2284,
  "um@@": 2285,
  "plan": 2286,
  "import@@": 2287,
  "dollar": 2288,
  "ands": 2289,
  "discus@@": 2290,
  "Nat@@": 2291,
  "wonder@@": 2292,
  "simp@@": 2293,
  "ieve": 2294,
  "thin@@": 2295,
  "context": 2296,
  "lab": 2297,
  "creati@@": 2298,
  "anda": 2299,
  "ough": 2300,
  "F": 2301,
  "sign@@": 2302,
  "istan": 2303,
  "orig@@": 2304,
  "docu@@": 2305,
  "para@@": 2306,
  "tegr@@": 2307,
  "ends": 2308,
  "autom@@": 2309,
  "boo@@": 2310,
  "website": 2311,
  "Dar@@": 2312,
  "Ver@@": 2313,
  "ze@@": 2314,
  "Po@@": 2315,
  "concept": 2316,
  "Ken@@": 2317,
  "liter@@": 2318,
  "mate": 2319,
  "spr@@": 2320,
  "temperat@@": 2321,
  "cultur@@": 2322,
  "instru@@": 2323,
  "drin@@": 2324,
  "Jo@@": 2325,
  "alis@@": 2326,
  "acu@@": 2327,
  "eds": 2328,
  "lions": 2329,
  "mati@@": 2330,
  "fascin@@": 2331,
  "Man": 2332,
  "Richard": 2333,
  "mit@@": 2334,
  "atur@@": 2335,
  "mid@@": 2336,
  "uit@@": 2337,
  "infra@@": 2338,
  "var@@": 2339,
  "Inter@@": 2340,
  "art@@": 2341,
  "mom@@": 2342,
  "centr@@": 2343,
  "Ri@@": 2344,
  "robots": 2345,
  "sn": 2346,
  "famil@@": 2347,
  "onder": 2348,
  "dise@@": 2349,
  "Is@@": 2350,
  "ya": 2351,
  "industri@@": 2352,
  "alter@@": 2353,
  "plac@@": 2354,
  "fo@@": 2355,
  "ids": 2356,
  "pra@@": 2357,
  "throu@@": 2358,
  "nat@@": 2359,
  "Ira@@": 2360,
  "ble@@": 2361,
  "leg@@": 2362,
  "ami": 2363,
  "band": 2364,
  "seem@@": 2365,
  "Mc@@": 2366,
  "web": 2367,
  "chil@@": 2368,
  "ural": 2369,
  "mani@@": 2370,
  "mun@@": 2371,
  "sin@@": 2372,
  "moti@@": 2373,
  "bru@@": 2374,
  "gol@@": 2375,
  "X@@": 2376,
  "mee@@": 2377,
  "online": 2378,
  "fro@@": 2379,
  "anim@@": 2380,
  "Sp@@": 2381,
  "Do@@": 2382,
  "U.@@": 2383,
  "vacc@@": 2384,
  "verse": 2385,
  "Bar@@": 2386,
  "emotion@@": 2387,
  "zi@@": 2388,
  "anci@@": 2389,
  "statist@@": 2390,
  "don@@": 2391,
  "aul": 2392,
  "complex@@": 2393,
  "osy@@": 2394,
  "He@@": 2395,
  "end@@": 2396,
  "ote": 2397,
  "198@@": 2398,
  "colle@@": 2399,
  "The@@": 2400,
  "stru@@": 2401,
  "Cen@@": 2402,
  "iety": 2403,
  "70": 2404,
  "concentr@@": 2405,
  "John": 2406,
  "Pe@@": 2407,
  "demon@@": 2408,
  "Californi@@": 2409,
  "bert": 2410,
  "Rus@@": 2411,
  "At@@": 2412,
  "intu@@": 2413,
  "Niger@@": 2414,
  "Ti@@": 2415,
  "scri@@": 2416,
  "W": 2417,
  "q": 2418,
  "AS@@": 2419,
  "na": 2420,
  "Mid@@": 2421,
  "Mil@@": 2422,
  "Sch@@": 2423,
  "bas@@": 2424,
  "strateg@@": 2425,
  "tran@@": 2426,
  "len": 2427,
  "basis": 2428,
  "blo@@": 2429,
  "ier": 2430,
  "ort": 2431,
  "blog@@": 2432,
  "extra": 2433,
  "s-@@": 2434,
  "&apos;@@": 2435,
  "ll": 2436,
  "Ber@@": 2437,
  "ington": 2438,
  "L": 2439,
  "gers": 2440,
  "sl@@": 2441,
  "opti@@": 2442,
  "cular": 2443,
  "on-@@": 2444,
  "ours": 2445,
  "popu@@": 2446,
  "financi@@": 2447,
  "lion": 2448,
  "meter": 2449,
  "evolu@@": 2450,
  "lie": 2451,
  "princip@@": 2452,
  "dol@@": 2453,
  "West@@": 2454,
  "ree": 2455,
  "a-@@": 2456,
  "300": 2457,
  "ade@@": 2458,
  "rist@@": 2459,
  "lob@@": 2460,
  "mand": 2461,
  "16": 2462,
  "Man@@": 2463,
  "Wor@@": 2464,
  "prob@@": 2465,
  "run@@": 2466,
  "inste@@": 2467,
  "fab@@": 2468,
  "extr@@": 2469,
  "CO@@": 2470,
  "nd": 2471,
  "member": 2472,
  "photo@@": 2473,
  "pal@@": 2474,
  "bin@@": 2475,
  "tries": 2476,
  "sym@@": 2477,
  "ek": 2478,
  "K": 2479,
  "90": 2480,
  "hoo@@": 2481,
  "gan@@": 2482,
  "inspir@@": 2483,
  "ja@@": 2484,
  "kilome@@": 2485,
  "R": 2486,
  "ouldn": 2487,
  "ok@@": 2488,
  "intel@@": 2489,
  "oce@@": 2490,
  "thou@@": 2491,
  "ne": 2492,
  "zen": 2493,
  "zes": 2494,
  "sit@@": 2495,
  "vide@@": 2496,
  "sum": 2497,
  "perfec@@": 2498,
  "Kor@@": 2499,
  "dn": 2500,
  "techni@@": 2501,
  "pun@@": 2502,
  "loo@@": 2503,
  "ala@@": 2504,
  "rol@@": 2505,
  "ister": 2506,
  "ama@@": 2507,
  "volu@@": 2508,
  "behavi@@": 2509,
  "whe@@": 2510,
  "eu@@": 2511,
  "sibil@@": 2512,
  "$": 2513,
  "suc@@": 2514,
  "theor@@": 2515,
  "bab@@": 2516,
  "van": 2517,
  "vul@@": 2518,
  "opportun@@": 2519,
  "ts@@": 2520,
  "dit": 2521,
  "clim@@": 2522,
  "mic@@": 2523,
  "begin@@": 2524,
  "mel@@": 2525,
  "je@@": 2526,
  "log": 2527,
  "Gr@@": 2528,
  "absolu@@": 2529,
  "Al": 2530,
  "ang": 2531,
  "Eng@@": 2532,
  "prec@@": 2533,
  "mul@@": 2534,
  "contact": 2535,
  "interest@@": 2536,
  "Euro@@": 2537,
  "glob@@": 2538,
  "nov@@": 2539,
  "cour@@": 2540,
  "bel": 2541,
  "gene": 2542,
  "thu@@": 2543,
  "bac@@": 2544,
  "mos@@": 2545,
  "text": 2546,
  "Dan": 2547,
  "ker@@": 2548,
  "N": 2549,
  "abil@@": 2550,
  "langu@@": 2551,
  "ert": 2552,
  "vor@@": 2553,
  "busin@@": 2554,
  "ood@@": 2555,
  "ond@@": 2556,
  "Dan@@": 2557,
  "ij@@": 2558,
  "ip": 2559,
  "gas@@": 2560,
  "oman": 2561,
  "gang": 2562,
  "cent": 2563,
  "erv@@": 2564,
  "stig@@": 2565,
  "discover@@": 2566,
  "technolog@@": 2567,
  "compas@@": 2568,
  "mole@@": 2569,
  "specif@@": 2570,
  "rit@@": 2571,
  "films": 2572,
  "vast": 2573,
  "viru@@": 2574,
  "trum": 2575,
  "water@@": 2576,
  "bed@@": 2577,
  "Go@@": 2578,
  "via": 2579,
  "ander": 2580,
  "popul@@": 2581,
  "zon@@": 2582,
  "pap@@": 2583,
  "appar@@": 2584,
  "bet@@": 2585,
  "pret@@": 2586,
  "pers": 2587,
  "Te@@": 2588,
  "goo@@": 2589,
  "ion@@": 2590,
  "demo@@": 2591,
  "dering": 2592,
  "fs": 2593,
  "za@@": 2594,
  "ico": 2595,
  "tom": 2596,
  "urt": 2597,
  "grat@@": 2598,
  "plat@@": 2599,
  "sof@@": 2600,
  "sels": 2601,
  "X": 2602,
  "gina": 2603,
  "archit@@": 2604,
  "Den@@": 2605,
  "000": 2606,
  "alt": 2607,
  "quest@@": 2608,
  "youn@@": 2609,
  "ken@@": 2610,
  "aten": 2611,
  "robot@@": 2612,
  "pen": 2613,
  "fen@@": 2614,
  "weet": 2615,
  "wee@@": 2616,
  "heel": 2617,
  "nolog@@": 2618,
  "v": 2619,
  "sn@@": 2620,
  "gest@@": 2621,
  "f-@@": 2622,
  "lish": 2623,
  "ald": 2624,
  "bes@@": 2625,
  "tast@@": 2626,
  "ka@@": 2627,
  "Mis@@": 2628,
  "ere": 2629,
  "uro@@": 2630,
  "iet": 2631,
  "ous@@": 2632,
  "ite@@": 2633,
  "iet@@": 2634,
  "El@@": 2635,
  "dier": 2636,
  "see@@": 2637,
  "beg@@": 2638,
  "-": 2639,
  "U": 2640,
  "0": 2641,
  "J": 2642,
  "&@@": 2643,
  "q@@": 2644,
  "Y": 2645,
  "Q": 2646,
  "Z": 2647,
  "%": 2648,
  "é": 2649,
  "+": 2650,
  "#": 2651,
  "ö@@": 2652,
  ")": 2653,
  "–": 2654,
  "—": 2655,
  "á@@": 2656,
  "é@@": 2657,
  "ù": 2658,
  "j": 2659,
  "ü@@": 2660,
  "ó": 2661,
  "(": 2662,
  "@": 2663,
  "í@@": 2664,
  "ñ@@": 2665,
  "è@@": 2666,
  "=": 2667,
  "ã@@": 2668,
  "ä@@": 2669,
  "^": 2670,
  "ó@@": 2671,
  "É@@": 2672,
  "*": 2673,
  "”": 2674,
  "ï@@": 2675,
  "â@@": 2676,
  "ù@@": 2677,
  "“": 2678,
  "ā@@": 2679,
  "±": 2680,
  "√": 2681,
  "£": 2682,
  "ç@@": 2683,
  "ê@@": 2684,
  "à@@": 2685,
  "ò@@": 2686,
  "…": 2687,
  "˚": 2688,
  "º@@": 2689,
  "ú@@": 2690,
  "Ç@@": 2691
}